{"<s>":0,"<pad>":1,"</s>":2,"<unk>":3,"<mask>":4,"\n":5,"!":6,"\"":7,"#":8,"'":9,"(":10,")":11,"*":12,"+":13,",":14,"-":15,".":16,"/":17,"0":18,"1":19,"2":20,"3":21,"4":22,"5":23,"6":24,"8":25,"9":26,":":27,";":28,"<":29,"=":30,">":31,"?":32,"@":33,"[":34,"]":35,"_":36,"a":37,"b":38,"c":39,"d":40,"e":41,"f":42,"g":43,"h":44,"i":45,"j":46,"k":47,"l":48,"m":49,"n":50,"o":51,"p":52,"q":53,"r":54,"s":55,"t":56,"u":57,"v":58,"w":59,"x":60,"y":61,"z":62,"{":63,"}":64,"▁":65,"▁'":66,"':":67,"\"\"":68,"',":69,"on":70,"se":71,"in":72,"t-":73,"or":74,"al":75,"ch":76,"en":77,"re":78,"ti":79,"x-":80,"er":81,"e-":82,"con":83,"▁\"\"":84,"es":85,"ma":86,"tr":87,"ag":88,"\"\":":89,"tion":90,"lo":91,"▁f":92,"▁'x-":93,"an":94,"co":95,"ne":96,"age":97,"ac":98,"-u":99,"▁'c":100,"▁h":101,"tt":102,"ed":103,"ttp":104,"alse":105,"▁false":106,"a-":107,"f-":108,"ach":109,"s':":110,"ol":111,"ttps":112,"at":113,"ing":114,"y':":115,"ver":116,"ch-u":117,"ch-ua-":118,"▁https":119,"▁'ac":120,"int":121,"st":122,"ki":123,".w":124,"as":125,"=(":126,"ut":127,"s-":128,"▁'acc":129,"ia":130,"por":131,"enco":132,"ep":133,"sec":134,"sel":135,"ent-":136,"ic":137,"self":138,"ding":139,"encoding":140,"e',":141,"ri":142,"▁'n":143,"cont":144,"trol":145,"control":146,"fr":147,"▁\"":148,".or":149,".org":150,"ud":151,"iki":152,"ar":153,"age=":154,"),":155,"gin":156,"un":157,"content-":158,"cach":159,"-al":160,"ser":161,"nel":162,"op":163,"port-":164,"ori":165,"ak":166,"ake-":167,"med":168,"media":169,"max-":170,"▁\"\"int":171,".wiki":172,".org\"\"":173,"media.org\"\"":174,"▁\"\"intake-":175,".wikimedia.org\"\"":176,"li":177,"si":178,"server":179,"▁'p":180,"tic":181,"max-age=":182,"=(self":183,"sion":184,"▁false\n":185,"{'":186,"}\"":187,"▁\"{'":188,"'}\"":189,"▁p":190,"am":191,"\"\",":192,"ex":193,"max":194,"de":195,"option":196,"encoding':":197,"e,":198,"ci":199,"ytic":200,"alytic":201,"analytic":202,"analytics":203,"-ch-ua-":204,"sec-ch-ua-":205,"),ch-ua-":206,"▁\"\"intake-analytics":207,"▁\"\"intake-analytics.wikimedia.org\"\"":208,"exp":209,"ans":210,"trans":211,"uri":212,"//":213,"://":214,"loud":215,"options':":216,"is":217,"▁ut":218,"f-8":219,"▁utf-8":220,"server':":221,"▁'no":222,"tion':":223,"ept-":224,"ction':":225,"e-options':":226,"origin":227,"bd":228,"▁'accept-":229,"ro":230,"=\"\"":231,"ass":232,"to":233,"▁'',":234,"▁'content-":235,"version":236,"ad":237,"▁'v":238,"-version":239,",sec-ch-ua-":240,"▁\"\"intake-analytics.wikimedia.org\"\"),ch-ua-":241,"conne":242,"report-":243,"ess":244,"id":245,"▁as":246,"cii":247,"▁ascii":248,"▁'s":249,"▁'cach":250,"ess-":251,"ess-control":252,"▁https://":253,"_age":254,"nel\"\",":255,"max_age":256,"max_age\"\":":257,"fer":258,"▁'access-control":259,"connection':":260,"▁m":261,"▁'max-age=":262,"t',":263,"▁'exp":264,"w-":265,"are":266,"ke":267,"ty":268,"e':":269,"rc":270,"\"\"',":271,"control':":272,"cloud":273,"iv":274,"00":275,"keep":276,"-aliv":277,"keep-aliv":278,"▁in":279,".co":280,"pol":281,"src":282,"polic":283,"low-":284,"-allow-":285,".com":286,"aut":287,"e-control':":288,"action":289,"fl":290,"ec":291,"dn":292,"flare":293,"▁\"{'server':":294,"▁'keep-aliv":295,"▁'access-control-allow-":296,"ary':":297,"▁'vary':":298,"den":299,"ode":300,"policy':":301,"ip":302,"▁'x-cach":303,"▁o":304,"securi":305,"it":306,"▁2":307,"_fr":308,"▁ok":309,"▁\"\"max_age\"\":":310,"action\"\":":311,"_fraction\"\":":312,"▁200":313,"ul":314,"main":315,"st-":316,"ff":317,"typ":318,"▁'\"\"":319,"▁'cache-control':":320,"-c":321,"tric":322,"▁'stric":323,"▁'strict-":324,"▁'connection':":325,"unk":326,"content-typ":327,"▁'ch":328,"-encoding':":329,"transfer":330,"unked":331,"▁'chunked":332,"transfer-encoding':":333,"/s":334,"▁'keep-alive',":335,")',":336,"ect-":337,"po":338,"▁'content-encoding':":339,"ff',":340,"o-":341,"ct":342,"▁'b":343,"▁4":344,"\"\":\"\"":345,"age':":346,"ect-ct":347,"▁'g":348,"for":349,"omain":350,".cloud":351,"lat":352,"sn":353,"fram":354,"::":355,"cdn":356,"ty':":357,"▁'cf-":358,"port-securi":359,"transport-securi":360,"▁'strict-transport-securi":361,"▁'strict-transport-security':":362,"sni":363,"▁'x-content-typ":364,"▁'nosni":365,"▁'x-content-type-options':":366,"▁'nosniff',":367,"s;":368,"▁'accept-encoding":369,"stat":370,"▁.":371,"▁'self":372,"▁'self'":373,"ass',":374,"ull":375,"ur":376,"ang":377,"▁'x-fram":378,"▁'x-frame-options':":379,"statu":380,"cp":381,"status':":382,"up":383,"..":384,"▁'max-age=;":385,"cl":386,"▁'*":387,"ubd":388,"esubd":389,"udesubd":390,"cludesubd":391,"cludesubdomain":392,"▁includesubdomain":393,"e-status':":394,"load":395,"qu":396,"full":397,"cc":398,"report-uri":399,"form":400,"plat":401,"platform":402,"m_":403,"hr":404,"-version-":405,"auth":406,":f":407,"bit":408,"arch":409,":bd":410,";d":411,"c=\"\"":412,"mode":413,"ness":414,"wm_":415,"▁,":416,"▁\"\"wm_":417,"esc=\"\"":418,"▁'cp":419,"list":420,"▁'no-":421,"full-version-":422,"platform-version":423,"bitness":424,";desc=\"\"":425,"model":426,"▁\"\"wm_nel\"\",":427,"full-version-list":428,".j":429,"requ":430,"origin',":431,"reques":432,"y',":433,"▁for":434,"▁max-age=":435,"net":436,".net":437,"flare.com":438,".cloudflare.com":439,"port":440,"su":441,"report-to":442,"end":443,"zip":444,"report":445,"▁'gzip":446,"▁40":447,"succ":448,"▁pre":449,"url":450,"mis":451,"gro":452,"ints":453,"[\"\"":454,"_to":455,"▁[\"\"":456,"▁'nel":457,"▁'report-to":458,"ess_fraction\"\":":459,"points":460,"up\"\":":461,"endpoints":462,"report_to":463,"success_fraction\"\":":464,"url\"\":":465,"group\"\":":466,"▁[\"\"url\"\":":467,"▁'nel':":468,"▁'report-to':":469,"endpoints\"\":":470,"e'":471,"fa":472,"fron":473,"origin':":474,"▁preload":475,"59":476,"88":477,"▁is":478,"o-88":479,"59-":480,"▁iso-88":481,"▁iso-8859-":482,"▁iso-8859-1":483,"▁preload',":484,"th":485,"▁ma":486,"▁'*',":487,"▁'den":488,"▁includesubdomains;":489,"val":490,".js":491,"cf-":492,"ire":493,"oriz":494,"authoriz":495,"blo":496,"▁'transfer-encoding':":497,"▁'expire":498,"ere":499,"▁'access-control-allow-origin':":500,"lim":501,"t-src":502,"cf-nel\"\",":503,"ger":504,"valid":505,"ea":506,"revalid":507,"▁max-age=,":508,"revalidat":509,"▁'server':":510,"=(),":511,"▁'expires':":512,"lhr":513,"=\"\":\"\"":514,"=\"\":\"\";":515,"wag":516,"-ui":517,"/swag":518,"ger-ui":519,"/swagger-ui":520,"▁'cloud":521,"▁'gzip',":522,"tim":523,"▁'no-cach":524,"vat":525,"rivat":526,"▁'x-cache':":527,"il":528,"ust-":529,"ust-revalidat":530,"s',":531,"▁must-revalidat":532,"▁'accept-encoding,":533,"▁'deny',":534,"ation":535,"d-":536,"▁ma=":537,"ss-":538,"▁'chunked',":539,"-policy':":540,"oki":541,"cooki":542,"pp":543,"▁'ngin":544,"▁'nginx":545,"▁'expect-ct":546,"▁'expect-ct':":547,"ub":548,"ing':":549,"▁'per":550,"ure":551,"s-policy':":552,"sions-policy':":553,"missions-policy':":554,"▁'permissions-policy':":555,"s-max":556,"s-maxage=":557,"en',":558,"▁g":559,"▁s-maxage=":560,"▁'x-r":561,"▁'h":562,"▁'non":563,"/swagger-ui-":564,"ost":565,"/..":566,"ore":567,"und":568,"bc":569,"authorization":570,"es':":571,"▁'by":572,"▁must-revalidate',":573,"/b":574,"tes":575,"ra":576,"it-":577,"limit-":578,"▁::":579,"▁(":580,"▁gm":581,"▁gmt',":582,"▁'chunked'}\"":583,"do":584,"unt":585,"▁'cf-ra":586,"▁'cf-ray':":587,"▁https://cdn":588,"e,authorization":589,"pe":590,"▁'max-age=,":591,"ck":592,"cli":593,"rivate,":594,"▁'cloudflare":595,"▁'age':":596,"id':":597,"np":598,"vr":599,"ate":600,"▁j":601,"u,":602,"▁'th":603,"▁'cloudflare',":604,"▁'thu,":605,"olo":606,"e';":607,"et":608,"atelimit-":609,"rang":610,"▁',":611,"yn":612,"ia':":613,"▁'via':":614,"lang":615,"▁'private,":616,"langu":617,"https":618,"▁jan":619,"https://":620,"livr":621,"delivr":622,".jsdelivr":623,"▁https://cdn.jsdelivr":624,"▁https://cdn.jsdelivr.net":625,"w.":626,"coh":627,"▁'nginx/..":628,"▁'.":629,"▁'m":630,"ort":631,"intere":632,"st-coh":633,"interest-coh":634,"interest-cohort":635,"pro":636,"cache-status':":637,"▁'cf-cache-status':":638,"request":639,"block":640,"▁'accept-rang":641,"▁'bytes":642,"▁'accept-ranges':":643,"npm":644,"ead":645,"fo":646,"pi":647,"▁'bytes',":648,"/npm":649,"▁https://cdn.jsdelivr.net/npm":650,"-tim":651,"lhr',":652,"cdn-c":653,"eq":654,"gi":655,"rer":656,"gg":657,"refer":658,"referrer":659,"▁report-uri":660,"▁'en',":661,"▁'content-langu":662,"▁'x-cache-status':":663,".cloudflare.com/":664,"▁'content-language':":665,":;":666,".org/":667,"cen":668,"▁'d":669,"▁.',":670,"▁s-maxage=,":671,"e,authorization',":672,"iad":673,"ik":674,"af":675,"con/":676,"ip':":677,"=\"\"https://":678,"▁report-uri=\"\"https://":679,"expect-ct":680,"report-uri.cloudflare.com/":681,"eacon/":682,"/beacon/":683,"cdn-cgi":684,"▁report-uri=\"\"https://report-uri.cloudflare.com/":685,"expect-ct\"\"',":686,"/beacon/expect-ct\"\"',":687,"cdn-cgi/beacon/expect-ct\"\"',":688,"▁report-uri=\"\"https://report-uri.cloudflare.com/cdn-cgi/beacon/expect-ct\"\"',":689,"]',":690,"▁'interest-cohort":691,"see":692,"▁'pass',":693,"client-":694,"▁'interest-cohort=(":695,"a:f":696,"mne":697,"ary":698,"▁'cache":699,".\"\"',":700,"/pp":701,"3p":702,":bc":703,":cen":704,"pass":705,"wiki":706,"▁cp":707,"▁'server":708,"▁'sec-ch-ua-":709,"alaut":710,"al:cen":711,"ch':":712,"en.w":713,"▁\"\"report_to":714,"▁\"\"success_fraction\"\":":715,"▁\"\"endpoints\"\":":716,"▁\"\"fa":717,"tralaut":718,"tionary":719,"logg":720,"▁'x-client-":721,"▁host":722,"ing.wikimedia.org\"\"":723,"▁'ac:bc":724,".wmne":725,"gin/pp":726,"▁\"\"intake-logg":727,"▁'p3p":728,"▁pass":729,"▁pass',":730,"cial:cen":731,"),ch-ua-arch":732,"▁\"\"intake-analytics.wikimedia.org\"\")',":733,"▁'accept-ch':":734,"=\"\"see":735,",sec-ch-ua-platform-version":736,",sec-ch-ua-bitness":737,",sec-ch-ua-model":738,",sec-ch-ua-full-version-list":739,"▁\"\"intake-analytics.wikimedia.org\"\"),ch-ua-platform-version":740,"▁\"\"intake-analytics.wikimedia.org\"\"),ch-ua-bitness":741,"▁\"\"intake-analytics.wikimedia.org\"\"),ch-ua-model":742,"▁\"\"intake-analytics.wikimedia.org\"\"),ch-ua-full-version-list":743,"▁https://en.w":744,"▁more":745,"▁info":746,"▁'\"\"group\"\":":747,"/spe":748,"::a:f":749,"▁.,":750,"cp\"\"',":751,":f:bd":752,"arch,sec-ch-ua-bitness":753,":bde',":754,"▁'cp=\"\"see":755,";desc=\"\"pass":756,";desc=\"\"cp\"\"',":757,"ilure":758,"▁'accept-encoding,cooki":759,"ologin/pp":760,"w.eq":761,"▁'mw.eq":762,"-timing':":763,".org/wiki":764,"iad.wmne":765,"iktionary":766,"▁'interest-cohort=(),ch-ua-arch":767,"▁'cache;desc=\"\"pass":768,"▁'server-timing':":769,"▁'sec-ch-ua-arch,sec-ch-ua-bitness":770,"▁\"\"report_to\"\":":771,"▁\"\"failure":772,"tralautologin/pp":773,"▁'x-client-ip':":774,"▁host;desc=\"\"cp\"\"',":775,"ing.wikimedia.org\"\"]',":776,"▁'ac:bc::a:f":777,"▁\"\"intake-logging.wikimedia.org\"\"]',":778,"▁'p3p':":779,"▁pass,":780,"cial:centralautologin/pp":781,",sec-ch-ua-platform-version',":782,",sec-ch-ua-model,sec-ch-ua-platform-version',":783,",sec-ch-ua-full-version-list,sec-ch-ua-model,sec-ch-ua-platform-version',":784,"▁\"\"intake-analytics.wikimedia.org\"\"),ch-ua-platform-version=(self":785,"▁\"\"intake-analytics.wikimedia.org\"\"),ch-ua-bitness=(self":786,"▁\"\"intake-analytics.wikimedia.org\"\"),ch-ua-model=(self":787,"▁\"\"intake-analytics.wikimedia.org\"\"),ch-ua-full-version-list=(self":788,"▁https://en.wiktionary":789,"▁info.\"\"',":790,"/special:centralautologin/pp":791,":f:bd:bde',":792,"▁'accept-encoding,cookie,authorization',":793,"▁'mw.eqiad.wmne":794,".org/wiki/special:centralautologin/pp":795,"▁'interest-cohort=(),ch-ua-arch=(self":796,"▁'cache;desc=\"\"pass\"\",":797,"▁'sec-ch-ua-arch,sec-ch-ua-bitness,sec-ch-ua-full-version-list,sec-ch-ua-model,sec-ch-ua-platform-version',":798,"▁\"\"failure_fraction\"\":":799,"▁'ac:bc::a:f:f:bd:bde',":800,"▁https://en.wiktionary.org/wiki/special:centralautologin/pp":801,"▁'mw.eqiad.wmnet',":802,"te":803,"▁'x-ratelimit-":804,"di":805,"▁\"{'connection':":806,"▁'none';":807,"▁'self';":808,"no":809,"▁\"{'transfer-encoding':":810,"eb":811,"head":812,"header":813,"=block":814,"amz":815,"▁mode":816,"▁mode=block":817,"▁'x-amz":818,"-cf-":819,"cloudfron":820,"▁'x-amz-cf-":821,"▁'al":822,"xss-":823,"▁'x-xss-":824,"prote":825,"▁'x-xss-prote":826,"▁'x-xss-protection':":827,"not":828,"lose":829,"▁'close":830,"request-":831,"e-in":832,"lin":833,"▁\"not":834,"▁'no-cache',":835,"referrer-policy':":836,"sv":837,",\"\"":838,".nel":839,"],":840,"a.nel":841,"\"\"max_age\"\":":842,"\"\"],":843,"▁\"\"group\"\":":844,"▁\"\"cf-nel\"\",":845,"▁\"\"a.nel":846,"▁'\"\"success_fraction\"\":":847,"▁'\"\"endpoints\"\":":848,"\"\":\"\"cf-nel\"\",":849,".cloudflare.com\"\"],":850,"report_to\"\":\"\"cf-nel\"\",":851,",\"\"report_to\"\":\"\"cf-nel\"\",":852,"\"\"max_age\"\":',":853,"▁\"\"a.nel.cloudflare.com\"\"],":854,"▁'\"\"success_fraction\"\":,\"\"report_to\"\":\"\"cf-nel\"\",":855,"▁'\"\"success_fraction\"\":,\"\"report_to\"\":\"\"cf-nel\"\",\"\"max_age\"\":',":856,"-=\"\":\"\";":857,"▁'referrer-policy':":858,"c':":859,"t-sv":860,"▁'alt-sv":861,"▁'alt-svc':":862,"ic',":863,"uns":864,"ed-":865,"@..":866,"st@..":867,"/swagger-ui-di":868,"▁https://cdn.jsdelivr.net/npm/swagger-ui-di":869,"▁https://cdn.jsdelivr.net/npm/swagger-ui-dist@..":870,"▁'uns":871,"▁'unsaf":872,"ound":873,"▁found":874,"▁'h=\"\":\"\";":875,"el":876,"headers':":877,"ish":878,"me":879,"▁'sam":880,"▁404":881,"▁found\"":882,"est":883,"▁ma=,":884,"▁'accept-encoding',":885,"var":886,"nish":887,"▁';":888,"▁mode=block',":889,"varnish":890,"e-inlin":891,"▁'unsafe-inlin":892,"▁'no-cache,":893,"ubl":894,"sc":895,"▁'close',":896,"▁h-=\"\":\"\";":897,"▁ma='}\"":898,"▁n":899,"amic',":900,"ynamic',":901,"▁'dynamic',":902,"▁no-":903,"-src":904,"eorigin',":905,"res":906,"▁'access-control-":907,"▁'br":908,"by':":909,"bid":910,"▁forbid":911,"▁403":912,"▁forbidden":913,"-p":914,".g":915,"▁d":916,"ts":917,"u)',":918,"ubunt":919,"▁(ubunt":920,"▁(ubuntu)',":921,"ror":922,"▁'x-ratelimit-re":923,"error":924,"fon":925,"▁'a":926,"ublic":927,"▁w":928,"agma":929,"were":930,"set":931,"powere":932,"d-by':":933,"powered-by':":934,"▁'x-powered-by':":935,"dow":936,"▁'unsafe-inline'":937,"od":938,"ragma":939,"reden":940,"tial":941,"▁'pragma":942,"redential":943,"▁'pragma':":944,"le":945,"ross-":946,"b:;":947,"▁blo":948,"▁blob:;":949,"request-id':":950,"doc":951,"defa":952,"defaul":953,"ab":954,"security":955,"xel":956,"encount":957,"pixel":958,"encounter":959,"pixelencounter":960,"e'}\"":961,"▁'content-security":962,"▁'content-security-policy':":963,"stor":964,"c-":965,"ublic,":966,"ue',":967,"▁'tr":968,"and":969,"thod":970,"▁'true',":971,"/re":972,"t,":973,"alon":974,"ve':":975,"e-ve':":976,"▁'x-request-id':":977,"stand":978,"▁https://fon":979,"▁https://cdn.jsdelivr.net/npm/swagger-ui-dist@../swagger-ui-":980,"ts.g":981,"/redoc":982,"standalon":983,"▁https://fonts.g":984,"pt-src":985,"acc":986,"ript-src":987,"script-src":988,"method":989,"▁dat":990,"credential":991,"le-":992,"▁request":993,"▁'access-control-allow-credential":994,"▁'access-control-allow-credentials':":995,"▁'nginx/..',":996,"▁data":997,"ww":998,"▁'expres":999,"store,":1000,"▁'lhr":1001,"▁'express',":1002,"im":1003,"▁un":1004,"ce,":1005,"▁'sameorigin',":1006,"default-src":1007,".c":1008,"api":1009,"oo":1010,"▁'public,":1011,"op':":1012,"ba":1013,"▁'mis":1014,"▁'origin',":1015,"▁'access-control-allow-method":1016,"==":1017,"pop':":1018,"t)',":1019,"t.net":1020,"▁cloudfron":1021,"▁'error":1022,"▁fro":1023,".cloudfron":1024,"▁(cloudfron":1025,"▁'x-amz-cf-id':":1026,"▁'x-amz-cf-pop':":1027,"-p',":1028,"▁'lhr-p',":1029,"▁cloudfront',":1030,"▁from":1031,".cloudfront.net":1032,"▁(cloudfront)',":1033,"img":1034,"=='}\"":1035,"front',":1036,"▁'cloudfront',":1037,"=,":1038,"pre":1039,"▁st":1040,"=',":1041,"yle-":1042,"estor":1043,"yle-src":1044,"▁'access-control-allow-methods':":1045,"img-src":1046,"limit":1047,"▁'br',":1048,"▁'*'}\"":1049,"se-":1050,"▁includesubdomains',":1051,"user":1052,"oog":1053,"/.":1054,"▁privat":1055,"bb":1056,"limit':":1057,"ose-":1058,"expose-":1059,"▁'access-control-expose-":1060,"▁'access-control-expose-headers':":1061,"anc":1062,"maining':":1063,"e-anc":1064,"estors":1065,"e-ancestors":1066,"authorized":1067,"▁unauthorized":1068,"▁'cdn":1069,"▁401":1070,"et,":1071,"▁'access-control-allow-headers':":1072,"▁https://pixelencounter":1073,"-ag":1074,"ith":1075,"user-ag":1076,"user-agen":1077,"mi":1078,"b-":1079,"▁acc":1080,"ker":1081,"▁varnish":1082,"se-u":1083,"orker":1084,"base-u":1085,"base-uri":1086,"xhr":1087,"ync-":1088,"ync-xhr":1089,"-cross-":1090,"▁'nginx',":1091,"bo":1092,"cache-control':":1093,"▁\"{'cache-control':":1094,"▁option":1095,"down":1096,"▁s-maxage=',":1097,"set':":1098,"▁'se":1099,"▁''}\"":1100,"t-cooki":1101,"▁data:":1102,"▁'set-cooki":1103,"▁'set-cookie':":1104,"eg":1105,"▁'ww":1106,"entic":1107,"w-auth":1108,"▁'x-ratelimit-limit':":1109,"▁'x-ratelimit-remaining':":1110,"t,x-":1111,"▁'www-auth":1112,"enticat":1113,"▁'www-authenticat":1114,"bad":1115,"with":1116,"load-":1117,"requested-":1118,"▁'www-authenticate':":1119,"requested-with":1120,"-s":1121,"requested-with,":1122,"enfor":1123,"enforce,":1124,"▁options',":1125,"per":1126,"▁'cdn-":1127,"ct-src":1128,"▁ed":1129,"▁'x-varnish":1130,"▁'x-down":1131,"open',":1132,"▁'noopen',":1133,"connect-src":1134,"▁'http":1135,"load-options':":1136,"▁'x-download-options':":1137,"▁'tim":1138,"▁style-src":1139,"origin,":1140,"▁img-src":1141,"ent":1142,"▁no-cach":1143,"▁no-store,":1144,"▁no-cache,":1145,"veg":1146,"▁s":1147,"▁script-src":1148,"▁'enforce,":1149,"▁'gzip'}\"":1150,"oogl":1151,"▁'x-varnish':":1152,"▁veg":1153,"▁\"bad":1154,"▁vegur":1155,"▁'get,":1156,"▁400":1157,"▁request\"":1158,"m-":1159,"ou":1160,"=(self)',":1161,"ny":1162,"▁'same-":1163,"▁private',":1164,"om":1165,"▁http":1166,"origin-":1167,"ost,":1168,"▁'miss":1169,"atic":1170,"fc":1171,"ge',":1172,"▁connect-src":1173,"static":1174,"pis":1175,"ram":1176,"▁ch":1177,"▁42":1178,"-sh":1179,".standalon":1180,"@lat":1181,"bund":1182,"e.js":1183,"les":1184,"ss;":1185,"▁max-":1186,"▁default-src":1187,"ont-src":1188,"e-pre":1189,"▁\"\"base-uri":1190,"age-ve':":1191,"▁fram":1192,"▁font-src":1193,"▁'x-age-ve':":1194,"age:":1195,"▁https:;":1196,"=(self),":1197,"▁'sync-xhr":1198,"are=(self)',":1199,".com;":1200,"▁'x-cache-ve':":1201,"▁'strict-origin',":1202,".js;":1203,"▁form-":1204,"eapis":1205,"/swagger-ui.c":1206,"ild-":1207,"undles":1208,"/bundles":1209,"▁https://cdn.jsdelivr.net/npm/redoc":1210,"eb-sh":1211,"▁https://cdn.jsdelivr.net/npm/swagger-ui-dist@../swagger-ui.c":1212,"est/bundles":1213,"▁worker":1214,"▁web-sh":1215,"set.js":1216,"le.js;":1217,"▁blob:;\"\",":1218,"▁https://cdn.jsdelivr.net/npm/swagger-ui-dist@../swagger-ui-standalon":1219,"▁https://cdn.jsdelivr.net/npm/swagger-ui-dist@../swagger-ui-bund":1220,"/redoc.standalon":1221,"▁https://fonts.googl":1222,"▁https://fonts.gstatic":1223,"▁edge',":1224,"▁'http/.":1225,"▁child-":1226,"@latest/bundles":1227,"▁max-age:":1228,"e-preset.js":1229,"▁frame-ancestors":1230,"▁'sync-xhr=(self),":1231,"▁form-action":1232,"eapis.com":1233,"▁https://cdn.jsdelivr.net/npm/redoc@latest/bundles":1234,"▁https://cdn.jsdelivr.net/npm/swagger-ui-dist@../swagger-ui.css;":1235,"▁worker-src":1236,"▁web-share=(self)',":1237,"▁https://cdn.jsdelivr.net/npm/swagger-ui-dist@../swagger-ui-standalone-preset.js":1238,"▁https://cdn.jsdelivr.net/npm/swagger-ui-dist@../swagger-ui-bundle.js;":1239,"/redoc.standalone.js":1240,"▁https://fonts.googleapis.com":1241,"▁https://fonts.gstatic.com;":1242,"▁child-src":1243,"▁https://cdn.jsdelivr.net/npm/redoc@latest/bundles/redoc.standalone.js":1244,"dd":1245,"▁'x-ratelimit-reset':":1246,"▁max-age=',":1247,"ay":1248,"wh":1249,"let":1250,"indow":1251,"--":1252,"▁'.',":1253,"▁'miss'}\"":1254,"able":1255,"eo":1256,"if-":1257,"▁put":1258,"▁accep":1259,"pach":1260,"▁de":1261,"▁origin',":1262,"f-lhr',":1263,"▁'apach":1264,"er=(),":1265,"▁put,":1266,"ap":1267,"az":1268,"▁'keep-alive':":1269,"▁'timeo":1270,"▁delet":1271,"▁'timeout":1272,"▁'br'}\"":1273,"-polic":1274,"domain":1275,"ies':":1276,"▁;":1277,"▁'x-per":1278,"▁'cross-":1279,"tted":1280,"▁'deny":1281,"▁'none',":1282,"mitted":1283,"-cross-domain":1284,"▁delete,":1285,"-policies':":1286,"▁'x-permitted":1287,"-cross-domain-policies':":1288,"▁'x-permitted-cross-domain-policies':":1289,"fb":1290,"pass',":1291,"▁'bypass',":1292,"len":1293,"serv":1294,"l-":1295,"s\"":1296,"▁re":1297,"▁\"to":1298,"▁many":1299,"▁must-revalidate,":1300,"▁requests\"":1301,"▁429":1302,"▁\"too":1303,"-lhr',":1304,"y-":1305,"▁'keep-alive'}\"":1306,"=ci":1307,"go":1308,"t':":1309,"v:":1310,"▁max":1311,"▁'request-":1312,"▁'origin,":1313,"contex":1314,"cache-":1315,"id=ci":1316,"d-v:":1317,"ppid=ci":1318,"▁'appid=ci":1319,"▁'timeout=,":1320,"▁'request-contex":1321,"▁'appid=cid-v:":1322,"▁'request-context':":1323,"▁max=',":1324,"▁post,":1325,"▁'no-referrer":1326,"eter=(),":1327,"lc":1328,"ameorigin',":1329,"▁'no-store,":1330,"▁sameorigin',":1331,"▁user-agen":1332,"max-age':":1333,"▁'access-control-max-age':":1334,"▁'deny,":1335,"content-type,":1336,"▁mode=block,":1337,"▁user-agent',":1338,"wbo":1339,"untim":1340,"▁'x-runtim":1341,"▁'x-runtime':":1342,"cu":1343,"mo":1344,"▁'co":1345,"▁'max-age=',":1346,"eck":1347,"wboy',":1348,"▁'cowboy',":1349,"▁5":1350,"fi":1351,"rod":1352,"upx":1353,"▁'miss',":1354,"able\"":1355,".z":1356,".pixelencounter":1357,".az":1358,"app":1359,"s.net":1360,"web":1361,"zst":1362,"▁'e":1363,"neupx":1364,".web":1365,".window":1366,"sites":1367,"▁https://go":1368,"▁https://app":1369,"cprod":1370,"ureweb":1371,"ore.window":1372,"mezst":1373,".core.window":1374,"▁https://pixelencounter.com":1375,"▁https://pixelencounter.az":1376,"lencprod":1377,".z.web":1378,".pixelencounter.com":1379,"neupxlencprod":1380,"sites.net":1381,"▁https://gomezst":1382,"▁https://app.pixelencounter.com":1383,"urewebsites.net":1384,".core.windows.net":1385,"▁https://pixelencounter.azurewebsites.net":1386,".z.web.core.windows.net":1387,"neupxlencprod.z.web.core.windows.net":1388,"▁https://gomezstneupxlencprod.z.web.core.windows.net":1389,"dc":1390,"▁'o":1391,"▁x-":1392,"▁\"\"default-src":1393,"reen":1394,"ate-":1395,"screen":1396,"▁data:;":1397,"▁vegur',":1398,"▁'f":1399,"api-":1400,"-control':":1401,"fet":1402,"sin":1403,"ch-control':":1404,"▁'x-dn":1405,"▁https:":1406,"s-pre":1407,"▁'off',":1408,"fetch-control':":1409,"▁'x-dns-pre":1410,"▁'x-dns-prefetch-control':":1411,"▁'dn":1412,"control,":1413,"difi":1414,"ed-sin":1415,"if-mo":1416,"cache-control,":1417,"dified-sin":1418,"if-modified-sin":1419,"if-modified-since,":1420,"content":1421,"user-agent,x-":1422,"requested-with,if-modified-since,":1423,"user-agent,x-requested-with,if-modified-since,":1424,"user-agent,x-requested-with,if-modified-since,cache-control,":1425,"check":1426,"a-lhr',":1427,"atch":1428,"▁patch":1429,"ourc":1430,"ef":1431,"gr":1432,"va":1433,"▁'ge":1434,"▁patch,":1435,",x-":1436,",keep-aliv":1437,"stom":1438,"e,user-agent,x-requested-with,if-modified-since,cache-control,":1439,"ept-encoding":1440,"▁'be":1441,"eaa":1442,"header,keep-aliv":1443,"t,x-cu":1444,"when":1445,"▁'dnt,x-cu":1446,"stomheader,keep-aliv":1447,"e,user-agent,x-requested-with,if-modified-since,cache-control,content-typ":1448,"▁'dnt,x-customheader,keep-aliv":1449,"▁'dnt,x-customheader,keep-alive,user-agent,x-requested-with,if-modified-since,cache-control,content-typ":1450,"f---":1451,"▁content-type,":1452,"arer":1453,"-ceaa":1454,"ure-":1455,"bbf---":1456,"dd-ceaa":1457,"▁'cross-origin-":1458,"▁'appid=cid-v:bbf---":1459,"▁'bearer":1460,"▁'appid=cid-v:bbf---dd-ceaa":1461,"df":1462,"▁'close'}\"":1463,"▁x-requested-with,":1464,"ept-encoding',":1465,"▁'appid=cid-v:bbf---dd-ceaae'}\"":1466,"30":1467,"bf":1468,"▁30":1469,"▁'hi":1470,"grad":1471,"▁'get',":1472,"▁'bearer',":1473,"m=\"\"":1474,"alm=\"\"":1475,"▁'same-origin":1476,"servic":1477,"▁realm=\"\"":1478,"▁'no-referrer',":1479,"ale-":1480,"asic":1481,"key',":1482,"▁'basic":1483,"e,authorization,x-":1484,"▁stale-":1485,"api-key',":1486,"▁'dnt,x-customheader,keep-alive,user-agent,x-requested-with,if-modified-since,cache-control,content-type,authorization,x-":1487,"▁'dnt,x-customheader,keep-alive,user-agent,x-requested-with,if-modified-since,cache-control,content-type,authorization,x-api-key',":1488,"▁'x-rate-":1489,"▁'unsafe-inline';":1490,"boar":1491,"b',":1492,"pboar":1493,"-allow-origin':":1494,"=(),g":1495,"=(),p":1496,"=(),cli":1497,"pboard-":1498,"=(),clipboard-":1499,"e-lhr',":1500,"ros":1501,"api\"\"',":1502,"▁private'}\"":1503,"bj":1504,"▁'r":1505,"frame-ancestors":1506,"ava":1507,"secure-":1508,"upgrad":1509,"e-insecure-":1510,"upgrade-insecure-":1511,"upgrade-insecure-request":1512,"ment":1513,"xed-":1514,"rest-":1515,"style-src":1516,"-all-":1517,"▁'strict-origin-":1518,"e'\"\",":1519,"▁'none'\"\",":1520,"block-all-":1521,"mixed-":1522,"-cross-origin',":1523,"content;":1524,"when-cross-origin',":1525,"▁realm=\"\"rest-":1526,"▁'strict-origin-when-cross-origin',":1527,"block-all-mixed-":1528,"▁realm=\"\"rest-api\"\"',":1529,"block-all-mixed-content;":1530,"e/..":1531,"sb":1532,"▁'apache/..":1533,"▁'hit',":1534,"▁'x-rate-limit-":1535,"js":1536,"icr":1537,"▁'apache',":1538,"cel":1539,"hon":1540,"h-=\"\":\"\";":1541,"ow":1542,"yp":1543,"era":1544,"tom":1545,"ect-src":1546,"▁vegur'}\"":1547,"▁50":1548,"▁'same-origin'}\"":1549,"bject-src":1550,"cam":1551,"cation":1552,"gne":1553,"yros":1554,"cope":1555,"age,":1556,"vercel":1557,"ophon":1558,"olocation":1559,"▁'same-origin',":1560,"▁accept,":1561,"▁301":1562,"icrophon":1563,"tometer=(),":1564,"camera":1565,"gnetometer=(),":1566,"yroscope":1567,"icrophone":1568,"yroscope=(),":1569,"a=='}\"":1570,"▁'w":1571,"ern":1572,"cache':":1573,"ublic',":1574,"w=='}\"":1575,"xy-":1576,"▁server":1577,"▁'max-age='}\"":1578,"ource-":1579,"/v":1580,"▁'lin":1581,"▁\"servic":1582,"ilable\"":1583,"▁unava":1584,"▁'cdn-request":1585,"▁503":1586,"▁'link":1587,"▁\"service":1588,"▁unavailable\"":1589,"g=='}\"":1590,"▁ap":1591,"▁apr":1592,"d':":1593,"arou":1594,"resource-":1595,"▁'cross-origin-resource-":1596,"arousel":1597,"▁'cross-origin-resource-policy':":1598,"usb":1599,"code":1600,"▁'ratelimit-":1601,"eolocation":1602,"lay":1603,"wp":1604,"ong":1605,"secon":1606,"erom":1607,"store":1608,"=()',":1609,"▁'accep":1610,"▁'accel":1611,"oplay":1612,"autoplay":1613,"d-lhr',":1614,"▁no-store":1615,"ayment":1616,"erometer=(),":1617,"▁'accelerometer=(),":1618,"autoplay=(),":1619,"▁no-store'}\"":1620,"a',":1621,"ld":1622,"q=='}\"":1623,"edc":1624,"lhr'}\"":1625,"▁accept-encoding',":1626,"▁accept":1627,"s\"\",":1628,"▁per":1629,"-at":1630,"object-src":1631,"oni":1632,"▁'none';script-src":1633,"▁'none';style-src":1634,"▁'self';script-src":1635,"▁'self';img-src":1636,"▁'self';base-uri":1637,"▁'self';block-all-mixed-content;":1638,"font-src":1639,"▁data:;frame-ancestors":1640,"▁data:;object-src":1641,"▁'unsafe-inline';upgrade-insecure-request":1642,"-attr":1643,"▁'self';script-src-attr":1644,"▁'self';block-all-mixed-content;font-src":1645,"▁'unsafe-inline';upgrade-insecure-requests\"\",":1646,"-w":1647,"kong":1648,"ma=,":1649,"▁'x-vercel":1650,"▁406":1651,"ync-xhr=(),":1652,"▁acceptable\"":1653,"onion":1654,"ma=,h-=\"\":\"\";":1655,"▁'x-vercel-":1656,"-check":1657,"goog":1658,"ost-":1659,"▁cooki":1660,"▁error":1661,"▁post-":1662,"▁pre-check":1663,"check=,":1664,"▁'accept,":1665,"google-":1666,"▁post-check=,":1667,"▁pre-check=',":1668,"/api":1669,"s/":1670,"▁en":1671,"authorization',":1672,"default":1673,"aa":1674,"fd":1675,"tw":1676,"ack":1677,"ing-allow-origin':":1678,"▁https://ww":1679,"▁'timing-allow-origin':":1680,"▁https://www.":1681,"/ow":1682,"_per":1683,"bi":1684,"qx":1685,"tal":1686,"wn":1687,"yx":1688,"▁origin,":1689,"remaining':":1690,"reset':":1691,"▁public,":1692,"total":1693,"b-lhr',":1694,"lcarousel":1695,"<https://":1696,">;":1697,"e.cloudfront.net":1698,"e=,":1699,"io":1700,"l=\"\"":1701,"pon":1702,"low":1703,"ed,":1704,"▁'post,":1705,"key":1706,"▁get,":1707,"▁(varnish":1708,"respon":1709,"▁'cross-origin',":1710,"▁rel=\"\"":1711,"▁'wed,":1712,"/v/":1713,"<https://api":1714,"▁(varnish/.":1715,"=\"\":":1716,"jm":1717,"pat":1718,"pull":1719,"sq":1720,"▁authorization',":1721,"e-revalidat":1722,"ile-revalidat":1723,"error=',":1724,"c-lhr',":1725,"while-revalidat":1726,"if-error=',":1727,"▁stale-while-revalidat":1728,"▁stale-if-error=',":1729,"▁'cdn-requestpull":1730,"code':":1731,"low':":1732,"path":1733,"▁stale-while-revalidate=,":1734,"12":1735,"ca":1736,"get":1737,"hid":1738,"microphone":1739,"sync-xhr=(),":1740,"wri":1741,"sen":1742,"seri":1743,"al=(),":1744,"read":1745,"e-e":1746,"magnetometer=(),":1747,"lock":1748,"intern":1749,"s-get":1750,"▁\"intern":1751,"open":1752,"ake-lock":1753,"-credential":1754,"fullscreen":1755,"=(),interest-cohort":1756,"=(),screen":1757,"=(),seri":1758,"=(),magnetometer=(),":1759,"=(),fullscreen":1760,"te=(),fullscreen":1761,"ublickey":1762,"apid":1763,"l-b":1764,"▁500":1765,"=(),gyroscope=(),":1766,"=(),geolocation":1767,"=(),payment":1768,"=(),publickey":1769,"=(),clipboard-wri":1770,"=(),clipboard-read":1771,"camera=(),clipboard-read":1772,"usb=()',":1773,"▁'accelerometer=(),autoplay=(),":1774,"-wake-lock":1775,"▁error\"":1776,"hid=(),interest-cohort":1777,"microphone=(),payment":1778,"sync-xhr=(),usb=()',":1779,"al=(),sync-xhr=(),usb=()',":1780,"s-get=(),screen":1781,"▁\"internal":1782,"-credentials-get=(),screen":1783,"=(),serial=(),sync-xhr=(),usb=()',":1784,"=(),magnetometer=(),microphone=(),payment":1785,"te=(),fullscreen=(),geolocation":1786,"=(),gyroscope=(),hid=(),interest-cohort":1787,"=(),publickey-credentials-get=(),screen":1788,"=(),clipboard-write=(),fullscreen=(),geolocation":1789,"camera=(),clipboard-read=(),clipboard-write=(),fullscreen=(),geolocation":1790,"▁'accelerometer=(),autoplay=(),camera=(),clipboard-read=(),clipboard-write=(),fullscreen=(),geolocation":1791,"-wake-lock=(),serial=(),sync-xhr=(),usb=()',":1792,"=(),magnetometer=(),microphone=(),payment=(),publickey-credentials-get=(),screen":1793,"=(),gyroscope=(),hid=(),interest-cohort=(),magnetometer=(),microphone=(),payment=(),publickey-credentials-get=(),screen":1794,"▁'accelerometer=(),autoplay=(),camera=(),clipboard-read=(),clipboard-write=(),fullscreen=(),geolocation=(),gyroscope=(),hid=(),interest-cohort=(),magnetometer=(),microphone=(),payment=(),publickey-credentials-get=(),screen":1795,"▁'accelerometer=(),autoplay=(),camera=(),clipboard-read=(),clipboard-write=(),fullscreen=(),geolocation=(),gyroscope=(),hid=(),interest-cohort=(),magnetometer=(),microphone=(),payment=(),publickey-credentials-get=(),screen-wake-lock=(),serial=(),sync-xhr=(),usb=()',":1796,"bed":1797,"d',":1798,"s-12":1799,"authorization,":1800,"▁window":1801,"second':":1802,"s-125":1803,"▁windows-125":1804,"-',":1805,"cb":1806,"db":1807,"ee":1808,"worker":1809,"chl-b":1810,"ass':":1811,"ict":1812,"▁'ph":1813,"▁'public',":1814,"▁\"{'acc":1815,"▁'cf-chl-b":1816,"val'":1817,"▁https://cdnjs":1818,"▁'unsafe-e":1819,"ypass':":1820,"▁\"{'access-control":1821,"▁'cf-chl-bypass':":1822,"▁'unsafe-eval'":1823,"/',":1824,"dh":1825,"s,":1826,"▁total":1827,"▁'ec":1828,"▁'status':":1829,"▁'fa":1830,"ol-":1831,"request-method":1832,"▁'access-control-request-method":1833,"-page,":1834,"accept-encoding',":1835,"▁'link,":1836,"▁per-page,":1837,"response":1838,"▁total',":1839,"▁'access-control-request-method':":1840,"aj":1841,"dy":1842,"fe":1843,"fe-":1844,"hy":1845,"ib":1846,"wx":1847,"xy":1848,"▁'authorization,":1849,"▁'x-serv":1850,"▁'x-ol-":1851,"▁pro":1852,"add":1853,"▁'cache-":1854,"stats':":1855,"..',":1856,"fa.cloudfront.net":1857,"nown":1858,"ed-by':":1859,"y-lc":1860,"lcy-lc":1861,"xy-revalidat":1862,"▁\"{'access-control-allow-origin':":1863,"▁'x-served-by':":1864,"▁'x-ol-stats':":1865,"▁proxy-revalidat":1866,"cess":1867,"em":1868,"pr":1869,"▁report-to":1870,"er-policy':":1871,"e-a-":1872,"▁head":1873,"▁private,":1874,"=\"\"default":1875,"process":1876,"▁422":1877,"▁cookie',":1878,"lcy-lcy',":1879,"▁report-to=\"\"default":1880,"processable":1881,"▁report-to=\"\"default\"\"',":1882,"ae":1883,"cy':":1884,"▁c":1885,"▁tt":1886,"▁'k":1887,"ency':":1888,"tity":1889,"▁'x-kong":1890,"▁\"un":1891,"analytics.com":1892,"latency':":1893,"language,":1894,"google-analytics.com":1895,"▁entity":1896,"▁https://www.google-analytics.com":1897,"▁\"unprocessable":1898,".b":1899,".tw":1900,"bx":1901,"cr":1902,"oe":1903,"pdf":1904,"er.com":1905,"trap":1906,"f-b-":1907,"version':":1908,"cdn.com":1909,"proxy-":1910,"tstrap":1911,"store',":1912,"ootstrap":1913,"/owlcarousel":1914,"▁entity\"":1915,".bootstrap":1916,".bootstrapcdn.com":1917,"-a-":1918,"da":1919,"jv":1920,"mpo":1921,"▁':":1922,"▁'ed":1923,"▁'x-response":1924,"▁'x-version':":1925,"f-d":1926,"▁public',":1927,"▁'x-cache-":1928,"maining":1929,"-time':":1930,"mempo":1931,"▁'x-rate-limit-limit':":1932,"▁(varnish/.)',":1933,"▁'x-response-time':":1934,"gl":1935,"gat":1936,"hjm":1937,"ix":1938,"i=(),":1939,"wz":1940,"▁camera":1941,"▁'unk":1942,"▁'<https://api":1943,"▁full":1944,"▁'x-worker":1945,"rogat":1946,"idi=(),":1947,"▁'sur":1948,"▁microphone":1949,"▁midi=(),":1950,"▁'no-store',":1951,"▁magnetometer=(),":1952,"▁gyroscope=(),":1953,"npn":1954,"ayu":1955,"dc.":1956,"▁'link':":1957,"path':":1958,"▁proxy-revalidate',":1959,"mempool":1960,"▁camera=(),":1961,"▁'unknown":1962,"▁fullscreen":1963,"▁'x-worker':":1964,"rogate-control':":1965,"▁'surrogate-control':":1966,"▁microphone=(),":1967,"-d":1968,"-lo":1969,".ma":1970,".onion":1971,"be":1972,"bl":1973,"ff-lhr',":1974,"hqx":1975,"hsq":1976,"l':":1977,"lor":1978,"pdy":1979,"sab":1980,"tern":1981,"voe":1982,"w/":1983,"xt":1984,"xz":1985,"yy":1986,"zon":1987,"▁e":1988,"▁'onion":1989,"er':":1990,"▁\"\"frame-ancestors":1991,"ma=',":1992,"col':":1993,"ac-lhr',":1994,"a-e":1995,"fra":1996,"de'}\"":1997,"://mempool":1998,"iswx":1999,"tocol':":2000,"ad.onion":2001,"idyx":2002,"thdh":2003,"il.g":2004,"protocol':":2005,"afc":2006,"▁'altern":2007,"ed-lhr',":2008,"▁'h=\"\":\"\";ma=,h-=\"\":\"\";":2009,"▁'lhr::":2010,"ithub":2011,"-spdy":2012,"▁'http://mempool":2013,"ate-protocol':":2014,"bf',":2015,"▁'x-rate-limit-remaining':":2016,"wphsq":2017,"ldayu":2018,"ma=,h-=\"\":\"\";ma=',":2019,"▁'x-vercel-id':":2020,"▁'x-vercel-cache':":2021,"/api/":2022,"cation':":2023,"▁':npn":2024,"hjmlor":2025,"-location':":2026,".mail.g":2027,"hqxiswx":2028,"sabwphsq":2029,"voethdh":2030,"▁'onion-location':":2031,"idyxvoethdh":2032,"▁'alternate-protocol':":2033,"▁'h=\"\":\"\";ma=,h-=\"\":\"\";ma=,h-=\"\":\"\";ma=',":2034,"-spdy/',":2035,"▁'http://mempoolhqxiswx":2036,"ldayuidyxvoethdh":2037,"▁':npn-spdy/',":2038,"hjmlorad.onion":2039,".mail.gw/":2040,"sabwphsqldayuidyxvoethdh":2041,"▁'http://mempoolhqxiswxsabwphsqldayuidyxvoethdh":2042,"▁'http://mempoolhqxiswxsabwphsqldayuidyxvoethdhhjmlorad.onion":2043,".v":2044,"cd":2045,"fish":2046,"gh":2047,"iz":2048,"ition":2049,"rt":2050,"ual":2051,"ws":2052,"wt":2053,"▁cache-":2054,"▁open":2055,"\"\"'}\"":2056,"try":2057,"▁'x-path':":2058,"▁'cd":2059,"assfish":2060,"▁'accept-encoding'}\"":2061,"quer":2062,"▁'expired',":2063,"▁edition":2064,"▁sourc":2065,"upgrade-insecure-requests;":2066,"edc',":2067,"▁'unknown',":2068,"▁cache-lcy-lcy',":2069,"▁source":2070,"-b":2071,";\"\",":2072,";img-src":2073,";style-src":2074,"abc":2075,"eedc',":2076,"g',":2077,"gger":2078,"hit":2079,"jz":2080,"kz":2081,"l',":2082,"sp":2083,"uy":2084,"▁b":2085,"rel',":2086,"▁\"\"block-all-mixed-content;":2087,"es.v":2088,"track":2089,"▁'x-cdn":2090,"edb":2091,"a-fra":2092,"stud":2093,"fra-fra":2094,"isual":2095,"▁https://blo":2096,"▁https://dc.":2097,".com/v/":2098,"▁'\"\"ib":2099,"-ceedc',":2100,".cloudflare.com;style-src":2101,"▁ma=',":2102,"▁'x-rapid":2103,"eba-e":2104,"▁'allow':":2105,"estrel',":2106,".goog":2107,"leuser":2108,"▁blob:;script-src":2109,"▁'access-control-allow-method':":2110,"▁accept',":2111,"▁'origin,accept-encoding',":2112,"▁'appid=cid-v:eba-e":2113,"▁https://gomezstneupxlencprod.z.web.core.windows.net;img-src":2114,"content.com":2115,"services.v":2116,"▁'unsafe-inline';connect-src":2117,"io.com/v/":2118,"▁https://cdnjs.cloudflare.com;style-src":2119,"▁'cache-fra-fra":2120,"e-a--ceedc',":2121,"▁head,":2122,"▁'kestrel',":2123,"f-de-":2124,"▁'x-cache-hit":2125,"▁'http://mempoolhqxiswxsabwphsqldayuidyxvoethdhhjmlorad.onion/api/":2126,"upgrade-insecure-requests;default-src":2127,"gger.goog":2128,"▁\"\"block-all-mixed-content;upgrade-insecure-requests;default-src":2129,"track;\"\",":2130,"studio.com/v/":2131,"isualstudio.com/v/":2132,"▁https://blogger.goog":2133,"▁https://dc.services.v":2134,"leusercontent.com":2135,"▁'appid=cid-v:eba-ee-a--ceedc',":2136,"▁'cache-fra-fra,":2137,"▁'x-cache-hits':":2138,"isualstudio.com/v/track;\"\",":2139,"▁https://blogger.googleusercontent.com":2140,"▁https://dc.services.visualstudio.com/v/track;\"\",":2141,"-f-":2142,"-down":2143,"-when":2144,"-=\"\":":2145,"/c":2146,";',":2147,"ax":2148,"aac":2149,"a.cloudfront.net":2150,"d:":2151,"f',":2152,"gj":2153,"gth":2154,"gestor":2155,"http":2156,"kx":2157,"vz":2158,"xw":2159,"z-',":2160,"▁'//":2161,"▁'ff":2162,"tid':":2163,"ess':":2164,"coun":2165,"ageid':":2166,"acbf',":2167,"-uid':":2168,"▁'cf":2169,"▁h-=\"\":":2170,"edat":2171,"edgestor":2172,"ver':":2173,"unny":2174,"cachedat":2175,"▁\"{'age':":2176,"▁'bf-b-":2177,"▁'bunny":2178,"▁'gb',":2179,"▁.\"\"'}\"":2180,"ullzon":2181,"requestid':":2182,"success':":2183,"▁'h=\"\":":2184,"▁::',":2185,"▁'ms',":2186,"proxy":2187,"cdn-cz-',":2188,"-pullzon":2189,"▁'cdn-uid':":2190,"▁'cdn-pullzon":2191,"▁'cdn-status':":2192,"▁'cdn-cache':":2193,"▁'cdn-edgestor":2194,"▁'cdn-cachedat":2195,"▁'cdn-requestid':":2196,"▁'cdn-proxy":2197,"▁'no-referrer-when":2198,"▁'cdn-requestcoun":2199,"/api/v/":2200,"▁'cdn-requestpullcode':":2201,"▁'cdn-requestpullsuccess':":2202,"▁windows-1254":2203,"trycode':":2204,"f-de-acbf',":2205,"▁h-=\"\":\"\"',":2206,"▁'bf-b-f-de-acbf',":2207,"▁'bunnycdn-cz-',":2208,"▁'h=\"\":\"\",":2209,"▁'cdn-pullzone':":2210,"▁'cdn-edgestorageid':":2211,"▁'cdn-cachedat':":2212,"▁'cdn-proxyver':":2213,"▁'no-referrer-when-down":2214,"▁'cdn-requestcountrycode':":2215,"-second':":2216,"bf-lhr',":2217,"d.cloudfront.net":2218,"gk":2219,"ly":2220,"mr":2221,"ql":2222,"sr":2223,"sz":2224,"tx":2225,"t'}\"":2226,"usion":2227,"vn":2228,"▁'fb":2229,"▁'kong":2230,"allow':":2231,"chang":2232,"an)',":2233,"▁'cac":2234,"assen":2235,"▁\"{'allow':":2236,"▁passen":2237,"exchang":2238,"debi":2239,"▁'content-typ":2240,"adf":2241,"▁mc":2242,"▁..":2243,"cf-lhr',":2244,"ea.cloudfront.net":2245,"/..'}\"":2246,"limit-second':":2247,"▁(debi":2248,"▁'x-ratelimit-limit-second':":2249,"▁'x-ratelimit-remaining":2250,"length":2251,"▁'ratelimit-limit':":2252,"▁'ratelimit-remaining':":2253,"▁'ratelimit-reset':":2254,"▁'phusion":2255,"hyd":2256,"▁'x-kong-":2257,"▁'kong/..'}\"":2258,"▁passenger":2259,"▁(debian)',":2260,"▁'x-ratelimit-remaining-second':":2261,"length,":2262,"#apid":2263,"-a":2264,"-b-":2265,"?p":2266,"_secon":2267,"bff":2268,"cfc":2269,"fz":2270,"gfe-":2271,"hz":2272,"kh":2273,"ks":2274,"l/..":2275,"l/v":2276,"ns/":2277,"o.com":2278,"ocu":2279,"p/..":2280,"s.js":2281,"uj":2282,"w.w":2283,"▁)":2284,"▁cach":2285,"▁'de":2286,"onld":2287,"orp":2288,"▁'x-google-":2289,"▁'cc":2290,"▁'cadd":2291,"edfa.cloudfront.net":2292,"ingeck":2293,"age=>;":2294,"unix":2295,"://ww":2296,"bdc":2297,"bdd":2298,"▁mis":2299,"▁mod":2300,".coingeck":2301,"▁'accept-encoding,origin',":2302,"ost',":2303,"ore#apid":2304,"bc-lhr',":2305,"ra/c":2306,"▁(unix":2307,".org/ns/":2308,"▁ma=,h-=\"\":\"\";":2309,"docs.js":2310,"▁'miss,":2311,"▁'no-referrer'}\"":2312,"▁'ee":2313,"mentation":2314,"▁perl/v":2315,"_per_secon":2316,"_perl/..":2317,"▁rel=\"\"http":2318,"▁windows-1252":2319,"▁'php/..":2320,"▁'<https://api.mail.gw/":2321,"▁'content-type,":2322,"hydra/c":2323,"?page=>;":2324,"o.com/api/v/":2325,"ocumentation":2326,"w.w.org/ns/":2327,"onld>;":2328,"▁'x-google-gfe-":2329,"▁'caddy',":2330,"://www.w.org/ns/":2331,"▁mod_perl/..":2332,".coingecko.com/api/v/":2333,"ore#apidocumentation":2334,"▁(unix)":2335,"docs.jsonld>;":2336,"▁perl/v..',":2337,"_per_second:":2338,"▁rel=\"\"http://www.w.org/ns/":2339,"▁'php/..',":2340,"▁'<https://api.mail.gw/docs.jsonld>;":2341,"hydra/core#apidocumentation":2342,"▁rel=\"\"http://www.w.org/ns/hydra/core#apidocumentation":2343,"-lhr'}\"":2344,"bz":2345,"ba-lhr',":2346,"cf":2347,"cj":2348,"cy":2349,"dic":2350,"der-policy':":2351,"fbb":2352,"gd":2353,"gp":2354,"gra":2355,"hx":2356,"ln":2357,"nag":2358,"qh":2359,"qz":2360,"rj":2361,"sy":2362,"sor":2363,"te',":2364,"ted-":2365,"uz":2366,"▁am":2367,"▁vr":2368,"▁usb":2369,"▁autoplay=(),":2370,"▁'ad":2371,"▁'requ":2372,"▁'vercel":2373,"in-p":2374,"t-sen":2375,"ed',":2376,"ent-li":2377,"content-encoding':":2378,"aker=(),":2379,"media=(),":2380,"site',":2381,"▁\"{'content-encoding':":2382,"▁payment":2383,"▁pict":2384,"▁'accept-language,":2385,"tok":2386,"▁object-src":2387,"-corp":2388,"ire-corp":2389,"cookie',":2390,"ure=(),":2391,"▁geolocation":2392,"peaker=(),":2393,"▁options,":2394,"▁speaker=(),":2395,"▁'same-site',":2396,"▁'origin,cookie',":2397,"ure-in-p":2398,"▁'cross-origin-open":2399,"▁'cross-origin-em":2400,"▁'same-origin;":2401,"ypted-":2402,"▁cookie'}\"":2403,"▁encr":2404,"bient-li":2405,"bedder-policy':":2406,"icture=(),":2407,"▁https://www.google-analytics.com:;":2408,"▁fullscreen=(),":2409,"ght-sen":2410,"▁miss',":2411,"sor=(),":2412,"▁ambient-li":2413,"▁vr=()',":2414,"▁usb=(),":2415,"▁'require-corp":2416,"▁'vercel',":2417,"▁payment=(),":2418,"▁picture-in-p":2419,"▁geolocation=(),":2420,"▁'cross-origin-opener-policy':":2421,"▁'cross-origin-embedder-policy':":2422,"ypted-media=(),":2423,"▁encrypted-media=(),":2424,"ght-sensor=(),":2425,"▁ambient-light-sensor=(),":2426,"▁'require-corp;":2427,"▁picture-in-picture=(),":2428,"'[":2429,"'\"\",":2430,".s":2431,".io":2432,"/as":2433,"/li":2434,"/pdf":2435,"='[":2436,"]'\"\",":2437,"be-":2438,"bs/":2439,"cz":2440,"cure":2441,"dz":2442,"gv":2443,"googl":2444,"hk":2445,"itt":2446,"jw":2447,"kw":2448,"l.c":2449,"mm":2450,"mx":2451,"mer":2452,"nl":2453,"qt":2454,"ter':":2455,"uv":2456,"vx":2457,"yl":2458,"y.com":2459,"▁-":2460,"▁typ":2461,"▁not":2462,"▁enforce,":2463,"▁'default":2464,"▁'-',":2465,"sets":2466,"▁\"\"max-age=":2467,"▁\"\"script-src":2468,"es?page=>;":2469,"try-":2470,"▁'x-js":2471,"acd":2472,"a-lhr'}\"":2473,"stack":2474,".worker":2475,"maxcdn":2476,"-version':":2477,"▁https://platform":2478,"▁https://ow":2479,"▁https://code":2480,"▁https://stack":2481,"▁https://maxcdn":2482,".com\"\",":2483,"eca',":2484,"ffc":2485,".jquer":2486,"reporturl":2487,".js/..":2488,"ation.tw":2489,"▁'hit":2490,"▁https://cdn.s":2491,"etagma":2492,"yndic":2493,"▁report-uri='[":2494,".cloudflare.com/aj":2495,"▁'dc":2496,"▁'df":2497,"after':":2498,"eb-lhr',":2499,".github":2500,"▁'api":2501,"abb":2502,"ab-a-":2503,"img.com\"\",":2504,"▁accept-":2505,"▁'deny'}\"":2506,"▁302":2507,"▁'hide'}\"":2508,"▁'x-rate-limit-reset':":2509,"arousel.js":2510,"▁https://www.googl":2511,"/owl.c":2512,"lcarousel.github":2513,"path.bootstrapcdn.com":2514,"▁https://cdnjs.cloudflare.com/aj":2515,"prg',":2516,".twitt":2517,"pdf.js/..":2518,"/owlcarousel/as":2519,"/owlcarousel/owl.c":2520,"▁'x-cdn-p":2521,"▁'x-rapidapi-":2522,"▁'http://mempoolhqxiswxsabwphsqldayuidyxvoethdhhjmlorad.onion/api/block":2523,"ax/li":2524,"▁..',":2525,"nager.com":2526,".io/owlcarousel/as":2527,"/pdf.worker":2528,"bs/pdf.js/..":2529,"mercure":2530,"sets/owlcarousel/owl.c":2531,"▁\"\"max-age=,":2532,"try-after':":2533,"▁'x-jsd":2534,"▁https://platform.twitt":2535,"▁https://owlcarousel.github":2536,"▁https://code.jquer":2537,"▁https://stackpath.bootstrapcdn.com":2538,"▁https://maxcdn.bootstrapcdn.com":2539,"reporturl]'\"\",":2540,"ation.twimg.com\"\",":2541,"▁https://cdn.syndic":2542,"etagmanager.com":2543,"▁report-uri='[reporturl]'\"\",":2544,"▁https://www.googletagmanager.com":2545,"▁https://cdnjs.cloudflare.com/ajax/li":2546,".io/owlcarousel/assets/owlcarousel/owl.c":2547,"/pdf.worker.js":2548,"bs/pdf.js/../pdf.worker.js":2549,"▁https://platform.twitter.com":2550,"▁https://owlcarousel.github.io/owlcarousel/assets/owlcarousel/owl.c":2551,"▁https://code.jquery.com":2552,"▁https://cdn.syndication.twimg.com\"\",":2553,"▁https://cdnjs.cloudflare.com/ajax/libs/pdf.js/../pdf.worker.js":2554,"▁https://owlcarousel.github.io/owlcarousel/assets/owlcarousel/owl.carousel.js":2555,"-d-":2556,"-tok":2557,"aa-":2558,"bp":2559,"dad":2560,"ew":2561,"eed":2562,"ef-lhr',":2563,"f.cloudfront.net":2564,"gx":2565,"gz":2566,"jb":2567,"jh":2568,"kp":2569,"nz":2570,"qr":2571,"qv":2572,"qy":2573,"tj":2574,"yz":2575,"▁'-":2576,"▁'u":2577,"▁'re":2578,"▁'af":2579,"▁'fc":2580,"ame":2581,"adc":2582,"upport":2583,"eae":2584,"▁'cloudflare'}\"":2585,"▁found',":2586,"c-a-":2587,"ba.cloudfront.net":2588,"ef',":2589,"▁(varnish/.),":2590,"▁'authorization,accept-encoding',":2591,"upported":2592,"-request-id':":2593,"-latency':":2594,"./.":2595,"__":2596,"aw":2597,"bedc":2598,"cn":2599,"c./.":2600,"dedfa.cloudfront.net":2601,"fh":2602,"fn":2603,"fd-":2604,"fb-":2605,"gy":2606,"gend":2607,"hg":2608,"hm":2609,"hp":2610,"jj":2611,"jo":2612,"km":2613,"lr":2614,"lassfish":2615,"mz":2616,"pst":2617,"q-":2618,"qk":2619,"rr":2620,"tz":2621,"um":2622,"uw":2623,"wl":2624,"xx":2625,"yst":2626,"▁af":2627,"▁'l":2628,"▁'serv":2629,"en,":2630,"ream":2631,"e-b-":2632,"ac',":2633,"-upst":2634,"a--":2635,"icros":2636,"ard":2637,"content-length,":2638,"site":2639,"bd-lhr',":2640,"ad',":2641,"▁micros":2642,"▁inc./.":2643,"ec-lhr',":2644,"/sun":2645,"▁'glassfish":2646,"ccd.cloudfront.net":2647,"▁preload;',":2648,"eab":2649,"ea',":2650,"▁(gl":2651,"▁java":2652,"▁jsp":2653,"▁dfc":2654,"▁dcfc":2655,"▁dbedc":2656,"abff":2657,"let/.":2658,"▁'timeout=',":2659,"▁'appid=cid-v:ab-a-":2660,"▁'dnt,x-customheader,keep-alive,user-agent,x-requested-with,if-modified-since,cache-control,content-type,authorization',":2661,"dfdb":2662,"ems":2663,"▁'x-kong-upst":2664,"proxy-latency':":2665,"daeca',":2666,"▁'x-kong-proxy-latency':":2667,"▁'default/":2668,"▁accept-language,":2669,"c-a-daeca',":2670,"ystems":2671,"▁'servlet/.":2672,"ream-latency':":2673,"▁microsystems":2674,"▁inc./.)',":2675,"▁(glassfish":2676,"▁java/sun":2677,"▁jsp/.":2678,"▁dcfcdfdb":2679,"▁dbedcdedfa.cloudfront.net":2680,"▁'appid=cid-v:ab-a-c-a-daeca',":2681,"▁'x-kong-upstream-latency':":2682,"▁dcfcdfdbccd.cloudfront.net":2683,",option":2684,"-e":2685,".h":2686,".exchang":2687,"_c":2688,"_n":2689,"_x":2690,"_z":2691,"ae-":2692,"bg":2693,"bf-":2694,"cv":2695,"dis":2696,"e;":2697,"efa":2698,"ethod":2699,"fg":2700,"fp":2701,"fing":2702,"fdd":2703,"gm":2704,"get,":2705,"hb":2706,"he":2707,"hs":2708,"iy":2709,"jp":2710,"la":2711,"lu":2712,"lz":2713,"mn":2714,"mv":2715,"oj":2716,"pa":2717,"qe":2718,"sd":2719,"sk":2720,"sfo":2721,"sourc":2722,"ux":2723,"ward":2724,"▁bd":2725,"▁abc":2726,"▁'in":2727,"▁'request":2728,"▁'eb":2729,"ename":2730,"x-worker":2731,"erate":2732,"erpr":2733,"eriz":2734,"e-sourc":2735,"▁fil":2736,"▁'x-for":2737,"▁'x-request-":2738,"▁'x-proxy-":2739,"aca.cloudfront.net":2740,"alse',":2741,"a-a-":2742,"f-f-":2743,"f-c-":2744,"int':":2745,"st',":2746,"sition':":2747,"▁\"{'referrer-policy':":2748,"▁'content-dis":2749,"▁method":2750,"ecec":2751,"▁20":2752,"ffd":2753,"post',":2754,"position':":2755,"for':":2756,"▁.\"\"',":2757,"▁must-revalidate'}\"":2758,"▁'head":2759,"test'}\"":2760,"range',":2761,"▁'dd":2762,"▁'dfc":2763,"iad::":2764,"ebbed":2765,"line;":2766,"ed-for':":2767,"accep":2768,"b-a-":2769,"▁sync-xhr=(),":2770,"fc.cloudfront.net":2771,"fbaf":2772,"content-type,x-worker":2773,"content-type,accep":2774,"dced":2775,"▁x-gend":2776,"▁'fun":2777,"▁'false',":2778,"▁'geolocation":2779,"grade',":2780,"▁'x-rate-reset':":2781,"cbba.cloudfront.net":2782,"s,get,":2783,"▁'authorization,content-type,x-worker":2784,"▁head',":2785,"▁fullscreen=(self)',":2786,"ble':":2787,"▁'lhr::sfo":2788,"▁'lhr::iad::":2789,"▁bfb":2790,"▁'no-referrer-when-downgra":2791,"▁'no-referrer-when-downgrade',":2792,"▁cache',":2793,"▁rel=\"\"http://www.w.org/ns/hydra/core#apidocumentation\"\"',":2794,"▁'api.exchang":2795,"-token',":2796,"▁'retry-after':":2797,"abffcbba.cloudfront.net":2798,",options,get,":2799,".host',":2800,"fingerpr":2801,"warded-for':":2802,"▁abcabffcbba.cloudfront.net":2803,"▁'inline;":2804,"▁'request:":2805,"erate.host',":2806,"erize-sourc":2807,"▁filename":2808,"▁'x-forwarded-for':":2809,"▁'x-request-fingerpr":2810,"▁'x-proxy-cache':":2811,"▁'content-disposition':":2812,"▁methods',":2813,"▁'head,options,get,":2814,"▁x-genderize-sourc":2815,"▁'geolocation=(),":2816,"▁'authorization,content-type,x-worker-token',":2817,"▁'lhr::sfo::":2818,"▁'no-referrer-when-downgrade'}\"":2819,"▁'api.exchangerate.host',":2820,"▁'x-request-fingerprint':":2821,"▁'head,options,get,post',":2822,"▁x-genderize-source',":2823,",v":2824,",content-length,":2825,"-bd":2826,"--c":2827,"-request-":2828,"-cache':":2829,".,v":2830,"/tx":2831,"15":2832,"ao":2833,"aed":2834,"afa":2835,"bn":2836,"br":2837,"back":2838,"ceb":2839,"dp":2840,"e\"":2841,"ebc":2842,"ee-lhr',":2843,"ft":2844,"fv":2845,"fx":2846,"gn":2847,"gq":2848,"g\"\"":2849,"hj":2850,"hv":2851,"ij":2852,"ies":2853,"kl":2854,"ky":2855,"lh":2856,"lj":2857,"lk":2858,"pj":2859,"pv":2860,"qrt":2861,"ry":2862,"rz":2863,"ratelimit-":2864,"s_per_second:":2865,"t:":2866,"uk":2867,"uo":2868,"ve',":2869,"wr":2870,"wv":2871,"ys":2872,"yv":2873,"zation":2874,"▁q":2875,"▁media":2876,"▁bf":2877,"▁<https://api":2878,"▁quer":2879,"▁'}\"":2880,"▁'ea":2881,"▁'total":2882,"▁'..',":2883,"orn":2884,"remaining":2885,"tili":2886,"▁'x-tim":2887,"cost":2888,"next":2889,"▁'ce":2890,"f-c":2891,"st\"\",":2892,"stest":2893,"icorn":2894,"▁\"uns":2895,"bd',":2896,"=\"\"qrt":2897,"ad-lhr',":2898,"▁'s.,v":2899,"▁'cache',":2900,"▁oct":2901,"▁ok',":2902,"-cc":2903,"▁415":2904,"cc.cloudfront.net":2905,"end-request-":2906,"report':":2907,"d-d":2908,"▁'per-p":2909,"cent:":2910,"afe.cloudfront.net":2911,"▁'x-ratelimit-limit":2912,"ebf":2913,"abbb":2914,"abfa.cloudfront.net":2915,"bbb":2916,"bbadf":2917,"b-b":2918,"▁varnish',":2919,"load-report':":2920,"▁'x-varnish-cache':":2921,"origin,content-type,accep":2922,"fc',":2923,"fcdc":2924,"fb',":2925,"l-k":2926,",x-ratelimit-":2927,"▁'wen,":2928,"edcdced":2929,"▁errors_per_second:":2930,"_percent:":2931,"▁rel=\"\"la":2932,"▁rel=\"\"next":2933,"s,ve',":2934,"▁'fastest":2935,"▁'cache-lcy-lcy',":2936,"▁'<https://api.coingecko.com/api/v/":2937,"▁efbaf":2938,"edbcc.cloudfront.net":2939,"exchanges?page=>;":2940,"▁'x-google-gfe-back":2941,"▁'x-google-gfe-load-report':":2942,"▁type\"":2943,"▁'hit'}\"":2944,"abb.cloudfront.net":2945,"▁'http://mempoolhqxiswxsabwphsqldayuidyxvoethdhhjmlorad.onion/api/block/":2946,"▁'utili":2947,"▁afbbadf":2948,"▁dfcabfa.cloudfront.net":2949,"▁filename=\"\"qrt":2950,",content-length,origin,content-type,accep":2951,"g\"\";',":2952,"ies_per_second:":2953,"zation_percent:":2954,"▁<https://api.coingecko.com/api/v/":2955,"▁queries_per_second:":2956,"▁'total':":2957,"remaining,content-length,origin,content-type,accep":2958,"▁'x-timer':":2959,"cost':":2960,"▁\"unsupported":2961,"▁'s.,vs,ve',":2962,"end-request-cost':":2963,"▁'per-page':":2964,"▁'x-ratelimit-limit,x-ratelimit-":2965,"fcdcafe.cloudfront.net":2966,"edcdcedfcdcafe.cloudfront.net":2967,"▁rel=\"\"last\"\",":2968,"▁rel=\"\"next\"\"',":2969,"▁efbafedcdcedfcdcafe.cloudfront.net":2970,"▁'x-google-gfe-backend-request-cost':":2971,"▁'utilization_percent:":2972,"▁afbbadfedbcc.cloudfront.net":2973,"▁filename=\"\"qrtag":2974,"remaining,content-length,origin,content-type,accept',":2975,"▁'x-ratelimit-limit,x-ratelimit-remaining,content-length,origin,content-type,accept',":2976,"(r":2977,"-ac":2978,"-ip':":2979,"./',":2980,"/mercure":2981,"_f":2982,"_l":2983,"ade":2984,"af-lhr',":2985,"bk":2986,"bv":2987,"bcc":2988,"cg":2989,"cm":2990,"cq":2991,"dq":2992,"dfb":2993,"ek":2994,"eec":2995,"fu":2996,"fw":2997,"fa-":2998,"fb-lhr',":2999,"gw":3000,"github":3001,"hd":3002,"hn":3003,"ie":3004,"iin":3005,"it',":3006,"jl":3007,"kd":3008,"ly-":3009,"md":3010,"mhr":3011,"ms',":3012,"nq":3013,"pid":3014,"qd":3015,"qg":3016,"qn":3017,"qq":3018,"r(":3019,"rq":3020,"sj":3021,"sm":3022,"tp":3023,"tv":3024,"u_":3025,"u-w":3026,"vg":3027,"vw":3028,"wo":3029,"xj":3030,"xp":3031,"ysite":3032,"▁ac":3033,"▁content-":3034,"▁th":3035,"▁eb":3036,"▁rt":3037,"▁r(":3038,"▁'t":3039,"▁'e-":3040,"▁'bd":3041,"▁'up":3042,"▁'..":3043,"▁'ra":3044,"▁'im":3045,"▁'--":3046,"on':":3047,"t-',":3048,"ch',":3049,"reat":3050,"regi":3051,"tiv":3052,"es/":3053,"est-',":3054,"▁fdfb":3055,"▁'x-c":3056,"▁'x-fa":3057,"▁'x-github":3058,"▁'x-iin":3059,"anch',":3060,"acfb":3061,"▁hit',":3062,"a-e-":3063,"f--":3064,"stly-":3065,".wel":3066,"unicorn":3067,"op-ip':":3068,"▁post',":3069,"\"\",<https://api":3070,"def":3071,"▁'not":3072,"▁'content-length,":3073,"adbc":3074,"ec',":3075,"▁'x-cachea":3076,"ffed":3077,"type':":3078,"▁'\"\"sr":3079,"-c-":3080,"▁'gunicorn":3081,"ccbd":3082,"ccdc":3083,"-version-type':":3084,"fabf":3085,"eaac":3086,"bce":3087,"▁'.ms',":3088,"▁'mysite":3089,"fo':":3090,"▁'dbd":3091,"▁'dfb":3092,"eb',":3093,"ress/":3094,"▁'branch',":3095,"▁'af-":3096,"▁'aws":3097,"le:":3098,"ab-":3099,"ab-lhr',":3100,"wwx":3101,"api-version':":3102,"bade":3103,"se-latency':":3104,"/.',":3105,"b-d-":3106,"perva":3107,"▁'eead":3108,"▁'eef":3109,"dcbff":3110,"api-..',":3111,"▁'dnt,":3112,"dfe.cloudfront.net":3113,"▁'rbx":3114,"▁'accept'}\"":3115,"response-latency':":3116,"▁rel=\"\"mercure":3117,"response':":3118,"feed":3119,"fe-prg',":3120,"address/":3121,"nown/mercure":3122,"▁proxy-revalidate,":3123,"▁creat":3124,"▁cfabf":3125,"proxy-response':":3126,"▁eu-w":3127,".mail.gw/.wel":3128,"▁'x-cdn':":3129,"▁'x-rapidapi-version':":3130,"▁'http://mempoolhqxiswxsabwphsqldayuidyxvoethdhhjmlorad.onion/api/address/":3131,"▁'x-kong-response-latency':":3132,"▁passenger(r":3133,"▁)'}\"":3134,"▁cacheab":3135,"bddbf":3136,"▁rel=\"\"http://www.w.org/ns/hydra/core#apidocumentation\"\",<https://api":3137,"▁'x-cdn-pop':":3138,"▁'x-cdn-pop-ip':":3139,"▁'x-rapidapi-regi":3140,"▁'x-rapidapi-proxy-response':":3141,"▁'x-jsd-version':":3142,"▁'x-jsd-version-type':":3143,"eedec":3144,"eaeea.cloudfront.net":3145,"▁201":3146,"▁q(":3147,"l-known/mercure":3148,"pidapi-..',":3149,"▁rt(":3150,"▁'.../',":3151,"▁'rapidapi-..',":3152,"▁'imperva":3153,"▁fdfbeaeea.cloudfront.net":3154,"▁'x-fastly-":3155,"▁'x-github-request-id':":3156,"▁'x-iinfo':":3157,"▁'x-cacheable':":3158,"▁'gunicorn/.',":3159,"▁'mysite.com":3160,"▁'rbx',":3161,"▁rel=\"\"mercure\"\"',":3162,"▁created":3163,"▁cfabfdfe.cloudfront.net":3164,"▁eu-west-',":3165,".mail.gw/.well-known/mercure":3166,"▁passenger(r)":3167,"▁cacheable:":3168,"▁rel=\"\"http://www.w.org/ns/hydra/core#apidocumentation\"\",<https://api.mail.gw/.well-known/mercure":3169,"▁'x-rapidapi-region':":3170,"▁'imperva',":3171,"▁'x-fastly-request-id':":3172,"▁rel=\"\"http://www.w.org/ns/hydra/core#apidocumentation\"\",<https://api.mail.gw/.well-known/mercure>;":3173,"-h":3174,"24":3175,"2':":3176,"_-":3177,"_q":3178,"_r":3179,"ai":3180,"av":3181,"af-":3182,"ae',":3183,"abd":3184,"aef":3185,"ae.cloudfront.net":3186,"ativ":3187,"bw":3188,"by":3189,"ba-":3190,"cw":3191,"der":3192,"dex":3193,"ei":3194,"ez":3195,"efb":3196,"fj":3197,"fq":3198,"fy":3199,"fc-":3200,"fdf":3201,"fuy":3202,"gt":3203,"h-":3204,"ig":3205,"ii":3206,"iq":3207,"jx":3208,"kk":3209,"lm":3210,"lp":3211,"lv":3212,"lx":3213,"ml":3214,"my":3215,"nn":3216,"nt":3217,"nu":3218,"npo":3219,"o_":3220,"out":3221,"qc":3222,"qm":3223,"rv":3224,"rx":3225,"rong":3226,"rg',":3227,"s:":3228,"sg":3229,"tf":3230,"uc":3231,"uh":3232,"ugp":3233,"vh":3234,"vv":3235,"wd":3236,"way":3237,"wiz":3238,"xo":3239,"xv":3240,"yj":3241,"z-":3242,"zr":3243,"▁sn":3244,"▁reques":3245,"▁bad":3246,"▁bed":3247,"▁'z":3248,"▁'a-":3249,"▁'origin":3250,"▁'revalidat":3251,"▁'d-":3252,"▁'authorization',":3253,"index":3254,"e-bd":3255,"trwwx":3256,"▁fec":3257,"▁fbc":3258,"▁feb":3259,"▁fffed":3260,"▁'caa":3261,"▁'ccd":3262,"f-ac":3263,"stjb":3264,"siz":3265,"de':":3266,"deba":3267,"ad-":3268,"ivativ":3269,"ecc":3270,"ecd":3271,"▁'bc":3272,"ccc":3273,"cc-lhr',":3274,"fae":3275,"d-lhr'}\"":3276,"bcf":3277,"bc',":3278,"bc-c":3279,"bc.cloudfront.net":3280,"ateway":3281,"▁'bytes'}\"":3282,"gg=='}\"":3283,"▁'db":3284,"▁'dad":3285,"▁'dff":3286,"▁'dfa":3287,"▁'dd-lhr',":3288,"afd":3289,"af',":3290,"eba-lhr',":3291,"ebef":3292,"▁'x-amz-":3293,"-prg',":3294,"▁'ae":3295,"▁'ade":3296,"▁wrong":3297,"ab',":3298,"ba',":3299,"baaac":3300,"bb',":3301,"bb-lhr',":3302,"bbf',":3303,"▁unauthorized',":3304,"b-b-":3305,"content-type,range',":3306,"▁524":3307,"▁'eac":3308,"▁'fee-lhr',":3309,"user-agent,x-requested-with,if-modified-since,cache-control,content-type,range',":3310,"efdef":3311,"▁'bearer'}\"":3312,"dfee":3313,"fdff":3314,"xymhr":3315,"▁cafc":3316,"▁'x-cache-age':":3317,"afcedfa.cloudfront.net":3318,"-ba-":3319,"gkugp":3320,"▁-)":3321,"▁type',":3322,"acdafcedfa.cloudfront.net":3323,"ffc.cloudfront.net":3324,"▁'hit,":3325,"▁'afd":3326,"xxstjb":3327,"▁'default/test'}\"":3328,"ecec.cloudfront.net":3329,"ebbedaca.cloudfront.net":3330,"▁'funnpo":3331,"▁bfbabbb":3332,"▁bfbb":3333,"▁'http://mempoolhqxiswxsabwphsqldayuidyxvoethdhhjmlorad.onion/api/block/dcbff":3334,"▁filename=\"\"qrtag__":3335,"▁'upgra":3336,"es/exchanges?page=>;":3337,"acfbee":3338,"▁'content-length,content-":3339,"ccbd.cloudfront.net":3340,"badeccbd.cloudfront.net":3341,"▁'dnt,user-agent,x-requested-with,if-modified-since,cache-control,content-type,range',":3342,"▁'http://mempoolhqxiswxsabwphsqldayuidyxvoethdhhjmlorad.onion/api/address/wiz":3343,"bddbfe.cloudfront.net":3344,"eedecffc.cloudfront.net":3345,"derivativ":3346,"▁snyy":3347,"▁request',":3348,"▁bedeedecffc.cloudfront.net":3349,"▁'origin'}\"":3350,"▁'revalidated',":3351,"indexes?page=>;":3352,"trwwxgkugp":3353,"▁fecefdef":3354,"▁fbcbadeccbd.cloudfront.net":3355,"▁febecec.cloudfront.net":3356,"▁fffeddeba":3357,"ebefbddbfe.cloudfront.net":3358,"dfeeacfbee":3359,"xymhrxxstjb":3360,"▁cafcebefbddbfe.cloudfront.net":3361,"▁bfbabbbacdafcedfa.cloudfront.net":3362,"▁'http://mempoolhqxiswxsabwphsqldayuidyxvoethdhhjmlorad.onion/api/block/dcbffdfeeacfbee":3363,"▁'http://mempoolhqxiswxsabwphsqldayuidyxvoethdhhjmlorad.onion/api/address/wizxymhrxxstjb":3364,"derivatives/exchanges?page=>;":3365,"trwwxgkugpv":3366,"▁fecefdefebbedaca.cloudfront.net":3367,"▁fffeddebaa.cloudfront.net":3368,"▁'http://mempoolhqxiswxsabwphsqldayuidyxvoethdhhjmlorad.onion/api/address/wizxymhrxxstjbtrwwxgkugpv":3369,",origin',":3370,"-e-":3371,"-ab":3372,"-2':":3373,"/test'}\"":3374,"_.":3375,"_a":3376,"_d":3377,"_y":3378,"_a=='}\"":3379,"ah":3380,"au":3381,"awp":3382,"aa',":3383,"bh":3384,"bu":3385,"b-c":3386,"byx":3387,"ce":3388,"cq=='}\"":3389,"dw":3390,"da-lhr',":3391,"dfa.cloudfront.net":3392,"ev":3393,"effc":3394,"eaca.cloudfront.net":3395,"f/":3396,"fs":3397,"fed":3398,"fbd":3399,"fead":3400,"fc-lhr',":3401,"fef',":3402,"g_":3403,"ga":3404,"h_":3405,"ht":3406,"hu":3407,"had":3408,"host":3409,"ha=='}\"":3410,"if":3411,"ih":3412,"ir":3413,"iw":3414,"ist":3415,"jg":3416,"kb":3417,"kf":3418,"kg":3419,"kj":3420,"ko":3421,"kr":3422,"lg":3423,"lq":3424,"ls":3425,"la=='}\"":3426,"mp":3427,"mt":3428,"mw":3429,"n_":3430,"nk":3431,"nr":3432,"nx":3433,"non":3434,"ng\"\";',":3435,"ov":3436,"ofr":3437,"ph":3438,"pt":3439,"pw":3440,"py":3441,"png\"\";',":3442,"qs":3443,"rf":3444,"rg":3445,"rp":3446,"ru":3447,"s_":3448,"s)',":3449,"tg":3450,"tch":3451,"tfz":3452,"u-":3453,"uq":3454,"vj":3455,"vm":3456,"vy":3457,"vg=='}\"":3458,"xc":3459,"xi":3460,"x\"\",":3461,"xcl":3462,"zv":3463,"zz":3464,"{}":3465,"▁con":3466,"▁no":3467,"▁content":3468,"▁authorization,":3469,"▁{}":3470,"▁'i":3471,"▁'j":3472,"▁'afc":3473,"ret',":3474,"x-amz":3475,"e-sec":3476,"mazon":3477,"trac":3478,"loy":3479,"▁fdd":3480,"▁ffe":3481,"comm":3482,"aceed":3483,"▁'ca":3484,"▁'cb-":3485,"▁'c--":3486,"▁'c-lhr',":3487,"▁'cdf":3488,"▁'cfd":3489,"a-c":3490,"f-b":3491,"ing'}\"":3492,"▁'ac-lhr',":3493,"ic-":3494,"liv":3495,"▁\"{'x-amz":3496,"exist":3497,"deb":3498,"debc":3499,"deadf":3500,"def.cloudfront.net":3501,"bd--":3502,"bdb',":3503,"bdcb":3504,"tos)',":3505,"adb',":3506,"-versions':":3507,"id-2':":3508,"▁'source-":3509,"tyy":3510,"flict":3511,"ecafa":3512,"ffe',":3513,"ffc-lhr',":3514,"▁'bf-lhr',":3515,"▁'bfb-":3516,"▁'nosniff":3517,"ccfbb":3518,"ccefa":3519,"▁409":3520,"eaec":3521,"eabff":3522,"d-b-":3523,"d-be-":3524,"bceb":3525,"bca',":3526,"▁(cen":3527,"▁'.'}\"":3528,"▁'df-lhr',":3529,"▁'de-lhr',":3530,"▁'dfe":3531,"▁'dff-lhr',":3532,"tem":3533,"ebb":3534,"eb.cloudfront.net":3535,"ebf-lhr',":3536,"ebefa":3537,"svg\"\";',":3538,"▁dbe":3539,"▁dedb":3540,"▁ddad":3541,"▁'x-ratelimit-retry-after':":3542,"error_.":3543,"▁'aec":3544,"▁'aa-lhr',":3545,"▁'amazon":3546,"abab":3547,"c-e":3548,"c-bf":3549,"andbo":3550,"acc',":3551,"accept-encoding":3552,"bbf-lhr',":3553,"b-e-":3554,"b-bc":3555,"-supported":3556,"▁sandbo":3557,"fcec":3558,"fcff":3559,"fcae.cloudfront.net":3560,"whz":3561,"--dc":3562,"▁put',":3563,"▁deccefa":3564,"fbh":3565,"fbff":3566,"fba-lhr',":3567,"fbebbed":3568,"▁'eed":3569,"▁'ea-lhr',":3570,"▁'eeb-lhr',":3571,"dcebc":3572,"▁x-trac":3573,"▁'feb":3574,"efd":3575,"▁308":3576,"▁realm=\"\"api\"\"',":3577,"▁accept'}\"":3578,"twqq":3579,"▁'ec-lhr',":3580,"▁'authorization,accept-encoding":3581,"jvb":3582,"-be-":3583,"abceabff":3584,"▁bbaaac":3585,"▁'ffc":3586,"▁..'}\"":3587,"bdc.cloudfront.net":3588,"bddabb.cloudfront.net":3589,"qtp":3590,"▁'dfbd":3591,"▁'api-supported":3592,"▁'http://mempoolhqxiswxsabwphsqldayuidyxvoethdhhjmlorad.onion/api/blocks/":3593,"dad.cloudfront.net":3594,"▁'-'}\"":3595,"eaebdc.cloudfront.net":3596,"▁'default/non":3597,"bgb',":3598,"fdddeadf":3599,"ffddef.cloudfront.net":3600,"▁'lhr::iad::twqq":3601,"▁bfbffddef.cloudfront.net":3602,"▁'request:re":3603,"bccf.cloudfront.net":3604,"▁acecafa":3605,"▁ebeaac":3606,"ccdcdfa.cloudfront.net":3607,"bce/tx":3608,"▁'mysite.com/test'}\"":3609,"▁'x-amz-id-2':":3610,"▁bfbbfbebbed":3611,"▁'http://mempoolhqxiswxsabwphsqldayuidyxvoethdhhjmlorad.onion/api/block/dcbffdfeeacfbeebce/tx":3612,"▁'http://mempoolhqxiswxsabwphsqldayuidyxvoethdhhjmlorad.onion/api/address/wizxymhrxxstjbtrwwxgkugpv/tx":3613,"feadd.cloudfront.net":3614,"haddc.":3615,"▁conflict":3616,"▁content\"":3617,"e-secret',":3618,"▁ffeaceed":3619,"commend":3620,"▁\"{'x-amz-request-id':":3621,"existing'}\"":3622,"debcbccf.cloudfront.net":3623,"▁'source-age':":3624,"ccfbbbddabb.cloudfront.net":3625,"▁(centos)',":3626,"ebefafeadd.cloudfront.net":3627,"▁dbeebefafeadd.cloudfront.net":3628,"▁dedbdebcbccf.cloudfront.net":3629,"▁ddadccfbbbddabb.cloudfront.net":3630,"▁'amazons',":3631,"▁sandbox\"\",":3632,"▁deccefaabceabff":3633,"▁x-trace-secret',":3634,"▁'authorization,accept-encoding,origin',":3635,"▁bbaaacfdddeadf":3636,"▁'api-supported-versions':":3637,"▁'default/nonexisting'}\"":3638,"▁'lhr::iad::twqq--":3639,"▁acecafaeaebdc.cloudfront.net":3640,"▁ebeaacccdcdfa.cloudfront.net":3641,"▁bfbbfbebbedfcae.cloudfront.net":3642,"▁ffeaceedeaca.cloudfront.net":3643,"▁deccefaabceabff.cloudfront.net":3644,"▁bbaaacfdddeadfbc.cloudfront.net":3645,")'}\"":3646,",hp":3647,"-f":3648,"-n":3649,"-fa":3650,"-id':":3651,"-a',":3652,"-fd":3653,":ec":3654,":b',":3655,":ed',":3656,":,hp":3657,"=ed":3658,"[host":3659,"_t":3660,"_w":3661,"_trans":3662,"_bx":3663,"ari":3664,"aar":3665,"aec":3666,"aeb":3667,"ae-lhr',":3668,"auz":3669,"aad',":3670,"af-c-":3671,"b_":3672,"bq":3673,"bs":3674,"bt":3675,"bin":3676,"bal":3677,"bde":3678,"bbc":3679,"baf":3680,"bmo":3681,"bg=='}\"":3682,"bqx":3683,"bgj":3684,"babb.cloudfront.net":3685,"cs":3686,"c',":3687,"ca=='}\"":3688,"cw=='}\"":3689,"cqx":3690,"d_":3691,"dr":3692,"ds":3693,"de',":3694,"dab":3695,"dvz":3696,"dxw":3697,"da-lhr'}\"":3698,"ej":3699,"eu":3700,"eti":3701,"ee-":3702,"ea-":3703,"ee',":3704,"eff":3705,"eeb":3706,"e=',":3707,"eorigin,":3708,"eef":3709,"ea--":3710,"fac":3711,"fde":3712,"fad":3713,"fec":3714,"fyn":3715,"fsc":3716,"fa-lhr',":3717,"fe-lhr',":3718,"fe.cloudfront.net":3719,"fjv":3720,"fql":3721,"fuz":3722,"fadc":3723,"fad-lhr',":3724,"gc":3725,"gqu":3726,"gcj":3727,"gum":3728,"gsiz":3729,"gateway":3730,"hf":3731,"hi":3732,"hl":3733,"ho":3734,"hse":3735,"hnp":3736,"hwz":3737,"hbp":3738,"i-":3739,"i_":3740,"iu":3741,"ity":3742,"icon/":3743,"ime":3744,"ijs":3745,"iw=='}\"":3746,"iq=='}\"":3747,"igh":3748,"jd":3749,"jne":3750,"jpi":3751,"jbe":3752,"jnl":3753,"k-":3754,"kn":3755,"kt":3756,"ku":3757,"kv":3758,"kcb":3759,"kxz":3760,"lun":3761,"ldn":3762,"ly',":3763,"lg=='}\"":3764,"mj":3765,"mk":3766,"mq":3767,"mic":3768,"mri":3769,"mid":3770,"mjz":3771,"mgk":3772,"msz":3773,"mpa":3774,"msm":3775,"n-":3776,"ns":3777,"nv":3778,"nxz":3779,"nvz":3780,"nrj":3781,"nhk":3782,"name":3783,"oh":3784,"ose":3785,"oe':":3786,"ojv":3787,"ogx":3788,"ohd":3789,"p/":3790,"pf":3791,"pl":3792,"pz":3793,"par":3794,"paz":3795,"pwp":3796,"qb":3797,"qw":3798,"qaz":3799,"qjs":3800,"qbi":3801,"qws":3802,"qks":3803,"qsy":3804,"q_z":3805,"q:,hp":3806,"rl":3807,"rbn":3808,"r-h":3809,"sf":3810,"so":3811,"ss":3812,"s'}\"":3813,"s?page=>;":3814,"swv":3815,"td":3816,"tl":3817,"tn":3818,"ttr":3819,"tbd":3820,"tfl":3821,"tend":3822,"tfd":3823,"tcb":3824,"uu":3825,"ua-":3826,"uia":3827,"uam":3828,"uqx":3829,"ufz":3830,"usd":3831,"vb":3832,"vf":3833,"vk":3834,"vl":3835,"ven":3836,"ved":3837,"v--":3838,"vaz":3839,"vwl":3840,"vpv":3841,"wb":3842,"wf":3843,"wg":3844,"wcr":3845,"wau":3846,"xd":3847,"xk":3848,"xq":3849,"xcz":3850,"xfx":3851,"xez":3852,"yc":3853,"yg":3854,"yo":3855,"yu":3856,"yes":3857,"yfr":3858,"y'}\"":3859,"yup":3860,"you":3861,"yeo":3862,"ywp":3863,"yqk":3864,"za":3865,"zp":3866,"zs":3867,"zu":3868,"zw":3869,"zw=='}\"":3870,"zaj":3871,"zqr":3872,"zsd":3873,"▁at":3874,"▁to":3875,"▁keep-aliv":3876,"▁ec":3877,"▁tim":3878,"▁npm":3879,"▁client-":3880,"▁im":3881,"▁ef":3882,"▁aa":3883,"▁adf":3884,"▁content-length,":3885,"▁site":3886,"▁aed":3887,"▁tem":3888,"▁'x":3889,"▁'ma":3890,"▁'f-":3891,"▁'ori":3892,"▁'s-maxage=":3893,"▁'ead":3894,"▁'fo":3895,"▁'eq":3896,"▁'ed-":3897,"▁'img":3898,"▁'static":3899,"▁'f-lhr',":3900,"▁'e-lhr',":3901,"▁'d-lhr',":3902,"▁'add":3903,"▁'yy":3904,"▁'ed-lhr',":3905,"▁'/api/":3906,"▁'jz":3907,"▁'jw":3908,"▁'ie":3909,"onst":3910,"ontend":3911,"ins?page=>;":3912,"ally',":3913,"char":3914,"en'}\"":3915,"repl":3916,"tible':":3917,"tip/":3918,"erval":3919,"er-id':":3920,"e-de":3921,"e-lhr'}\"":3922,"e-ae-":3923,"e-f-c":3924,"e-out":3925,"mag":3926,"match":3927,"▁'x-oe':":3928,"▁'x-ua-":3929,"▁'x-match":3930,"anh":3931,"ann":3932,"anime":3933,"compa":3934,"coins?page=>;":3935,"nec":3936,"acac":3937,"ace',":3938,"ac.cloudfront.net":3939,"acbf":3940,"acd-lhr',":3941,"ac-b-":3942,"acf/":3943,"▁'cec":3944,"▁'ccc":3945,"▁'cea":3946,"▁'cbc":3947,"▁'caf":3948,"▁'cc-":3949,"▁'cacc":3950,"▁'cdd":3951,"▁'cef":3952,"▁'cc-lhr',":3953,"▁'cdb":3954,"▁'cae":3955,"▁'cda":3956,"▁'cbdd":3957,"▁'cbc-lhr',":3958,"▁'cffd":3959,"ttz":3960,"ed\"":3961,"ed':":3962,"ed-c":3963,"edaf":3964,"ed.cloudfront.net":3965,"edc-lhr',":3966,"edf.cloudfront.net":3967,"a-ff":3968,"a-cc":3969,"a-b-":3970,"a-prg',":3971,"a-aa-":3972,"f-a":3973,"f-e-":3974,"f-ff":3975,"f-tok":3976,"f-aa-":3977,"aty":3978,"interval":3979,"kih":3980,"kiz":3981,"ash":3982,"asca":3983,"utab":3984,"porari":3985,"ri',":3986,"▁'n',":3987,"▁\"no":3988,"▁\"gateway":3989,"ar',":3990,"unw":3991,"sie":3992,"server-":3993,"de,":3994,"dea":3995,"de.cloudfront.net":3996,"defc":3997,"deb',":3998,"debf-lhr',":3999,"deacf/":4000,"ciu":4001,"bdb":4002,"bdy":4003,"bdd',":4004,"bdcf-lhr',":4005,"bdaed":4006,"bdafa":4007,"bd-cc":4008,"toy":4009,"version,":4010,"ada-":4011,"adab":4012,"adc-lhr',":4013,"ad-f-":4014,"adabd":4015,"-version',":4016,"▁'s',":4017,"polish":4018,"-allow-headers':":4019,".com',":4020,"_frontend":4021,"fffdff":4022,"▁'\"\"\"\"'}\"":4023,"-ca":4024,"-cc-":4025,"-ce-a-":4026,"-c-b":4027,"▁'be-":4028,"▁'bac":4029,"▁'bbc":4030,"▁'bb-":4031,"▁'bfc":4032,"▁'bfb":4033,"▁'bar',":4034,"▁'github":4035,"::xj":4036,"▁'cf-bgj":4037,"▁'cf-polish":4038,"▁'self'\"\",":4039,"ury":4040,"urz":4041,"quy":4042,"cc-c":4043,"ccda":4044,"fafb":4045,"fab',":4046,"▁may":4047,"cf-ac":4048,"ea=='}\"":4049,"eafbb":4050,"eaadbc":4051,"ations:":4052,"d--":4053,"d-ba":4054,"uby":4055,"▁gateway":4056,"▁'h',":4057,"bcef":4058,"bcd-lhr',":4059,"bcae":4060,"bcba-lhr',":4061,"bcgv":4062,"bcedaf":4063,"do_":4064,"vrh":4065,"range'}\"":4066,"▁'monst":4067,"ead.cloudfront.net":4068,"eq=='}\"":4069,"▁'df-":4070,"▁'dcc":4071,"▁'dd-":4072,"▁'dbb":4073,"▁'dbe":4074,"▁'df-f-":4075,"▁'dbc-c":4076,"afdd":4077,"▁'interest-cohort=()',":4078,"dij":4079,"ebb',":4080,"eb-lhr'}\"":4081,"ed-path':":4082,"ed-ba-":4083,"▁'sameorigin,":4084,"▁no-store',":4085,"▁dd":4086,"▁dfbb":4087,"▁dfdd":4088,"▁dceb":4089,"▁dfae":4090,"▁dbceb":4091,"error-":4092,"▁'ab":4093,"▁'aab":4094,"▁'abb":4095,"▁'abf":4096,"▁'aeb-lhr',":4097,"lew":4098,"abp":4099,"ab--":4100,"aba',":4101,"abed-lhr',":4102,"ab-d-":4103,"abebf":4104,"security-tok":4105,"c-b":4106,"c-f-":4107,"c--ac":4108,"▁date,":4109,"api-version',":4110,"babc":4111,"==',":4112,"bba-lhr',":4113,"bb-d":4114,"b-lhr'}\"":4115,"eg=='}\"":4116,"badcfc":4117,"ent__":4118,"fc-c":4119,"fcd-lhr',":4120,"fcdb":4121,"fcf',":4122,"fcfc.cloudfront.net":4123,"fcebf":4124,"dds":4125,"dddc":4126,"dde-lhr',":4127,"whx":4128,"--ad":4129,"▁delete',":4130,"fb.cloudfront.net":4131,"fbe.cloudfront.net":4132,"fbac.cloudfront.net":4133,"fiwo":4134,"▁'ei":4135,"▁'ee-":4136,"▁'eec":4137,"▁'eea":4138,"▁'eeb":4139,"▁'eed-":4140,"▁'ee-lhr',":4141,"▁'effc-lhr',":4142,"dc',":4143,"▁x-api-version',":4144,"▁'fy":4145,"▁'fbd":4146,"▁'fec":4147,"▁'fea":4148,"▁'fbb":4149,"▁'fdc":4150,"▁'fef":4151,"▁'fbd-lhr',":4152,"efe-":4153,"eff-lhr',":4154,"efdb":4155,"efdad.cloudfront.net":4156,"efed.cloudfront.net":4157,",x-ic-":4158,"dfeab":4159,"▁realm=\"\"user":4160,"▁realm=\"\"http":4161,"▁'x-rate-limit-interval":4162,"ypw=='}\"":4163,"▁502":4164,"▁504":4165,"ldz":4166,"aae":4167,"aadeacf/":4168,"fd',":4169,"fdf-lhr',":4170,"fdb',":4171,"yxn":4172,"sentry":4173,"cbp":4174,"▁\"{'access-control-allow-headers':":4175,"▁'fab":4176,"fe-d-":4177,"fe-eb":4178,"aeac":4179,"▁cefb":4180,"▁cfdf":4181,"▁cbcedaf":4182,"oez":4183,"-a--":4184,"-a-ae":4185,"daea.cloudfront.net":4186,"▁'edff-lhr',":4187,"glp":4188,"▁'unknown'}\"":4189,"-df-":4190,"-db-":4191,"bee-lhr',":4192,"▁eeaec":4193,"▁efffdff":4194,"fra::xj":4195,"afc.cloudfront.net":4196,"afcbadcfc":4197,"▁'lhr::fra::xj":4198,"▁'http://mempoolhqxiswxsabwphsqldayuidyxvoethdhhjmlorad.onion/api/v/":4199,"wtp":4200,"▁'cdbc":4201,"▁'cdcf-lhr',":4202,"abcfbe.cloudfront.net":4203,"jzw":4204,"kzg=='}\"":4205,"▁beafbb":4206,"edba-lhr',":4207,"-f-bd":4208,"aac.cloudfront.net":4209,"aacf-lhr',":4210,"▁'ffbf-lhr',":4211,"▁'cfac":4212,"▁'cfb-":4213,"▁'cfc-lhr',":4214,"srf-tok":4215,"szd":4216,"vnzz":4217,"▁'fbe":4218,"adfadabd":4219,"-aec":4220,"khp":4221,"▁'dec-":4222,"bdc',":4223,"bdcd-":4224,"bdcead.cloudfront.net":4225,"▁'eee-lhr',":4226,"▁'eeefd":4227,"cfbdcb":4228,"fbb',":4229,"lnt":4230,"▁'adb-lhr',":4231,"mxs":4232,"nlj":4233,"ylv":4234,"▁'dcd-":4235,"abbebf":4236,"▁accept-version,":4237,"▁'-f":4238,"qko":4239,"rrrj":4240,"▁dfcafcbadcfc":4241,"ae-lhr'}\"":4242,"hef-":4243,"heigh":4244,"▁bdfcec":4245,"▁bddcebc":4246,"▁bdbdaed":4247,"▁204":4248,"▁'dda-lhr',":4249,"▁'ddc-lhr',":4250,"▁'dfcbba-lhr',":4251,"▁'funma":4252,"▁'lhr::iad::nxz":4253,"▁'lhr::iad::rrrj":4254,"▁'request:anime":4255,"▁'lhr::sfo::x":4256,"▁'cea-lhr',":4257,"bbbafc.cloudfront.net":4258,"▁'<https://api.coingecko.com/api/v/indexes?page=>;":4259,"▁'<https://api.coingecko.com/api/v/derivatives/exchanges?page=>;":4260,"▁'http://mempoolhqxiswxsabwphsqldayuidyxvoethdhhjmlorad.onion/api/block/bdafa":4261,"▁<https://api.coingecko.com/api/v/indexes?page=>;":4262,"▁<https://api.coingecko.com/api/v/derivatives/exchanges?page=>;":4263,"▁filename=\"\"qrtag_trans":4264,"adee":4265,"eec.cloudfront.net":4266,"md,":4267,"▁acdaea.cloudfront.net":4268,"▁content-language,":4269,"▁content-md,":4270,"▁the":4271,"▁this":4272,"▁ebecc":4273,"▁'x-casca":4274,"▁'x-csrf-tok":4275,"f--fd-":4276,"adbce.cloudfront.net":4277,"bcefcff":4278,"▁'dbdbf-lhr',":4279,"▁'dfbfba-lhr',":4280,"▁'af-lhr'}\"":4281,"▁'eead-lhr',":4282,"feedaadeacf/":4283,"xot":4284,"▁'caaac-lhr',":4285,"▁'bcac":4286,"ccca',":4287,"▁'dbe-lhr',":4288,"▁'dadf-lhr',":4289,"▁filename=\"\"qrtag__error_.":4290,"▁filename=\"\"qrtag__haddc.":4291,"▁'upgrade':":4292,"▁'upgrade,":4293,"▁'content-length,content-range',":4294,"▁'content-length,content-range'}\"":4295,"▁fddfadc":4296,"▁'nosniff'}\"":4297,"ababadbce.cloudfront.net":4298,"fbffaac.cloudfront.net":4299,"▁'dfbdba-lhr',":4300,"▁'http://mempoolhqxiswxsabwphsqldayuidyxvoethdhhjmlorad.onion/api/blocks/tip/":4301,"▁'request:recommend":4302,"▁'http://mempoolhqxiswxsabwphsqldayuidyxvoethdhhjmlorad.onion/api/block/dcbffdfeeacfbeebce/txid":4303,"▁'http://mempoolhqxiswxsabwphsqldayuidyxvoethdhhjmlorad.onion/api/address/wizxymhrxxstjbtrwwxgkugpv/txs/":4304,"=edge',":4305,"[hostname":4306,"icon/[hostname":4307,"parent__":4308,"q:,hpri',":4309,"▁keep-alive',":4310,"▁ecfcdb":4311,"▁time-out":4312,"▁client-security-tok":4313,"▁efdfeab":4314,"▁aaabbebf":4315,"▁adfadfadabd":4316,"▁aedbcefcff":4317,"▁temporari":4318,"▁'origsiz":4319,"▁'s-maxage=',":4320,"▁'ead-b-":4321,"▁'foo":4322,"▁'imgq:,hpri',":4323,"▁'statically',":4324,"▁'/api/icon/[hostname":4325,"▁'ie=edge',":4326,"▁'x-ua-compa":4327,"▁'x-matched-path':":4328,"a-b-bb":4329,"_frontend\"\"',":4330,"▁'github.com',":4331,"▁'cf-bgj':":4332,"▁'cf-polished':":4333,"ccda.cloudfront.net":4334,"eaadbceb.cloudfront.net":4335,"▁gateway\"":4336,"bcaefc.cloudfront.net":4337,"▁'monster-id':":4338,"▁dfbbbbbafc.cloudfront.net":4339,"▁dfddcfbdcb":4340,"▁dcebabebf":4341,"▁dfaeeaadbceb.cloudfront.net":4342,"▁dbcebbcaefc.cloudfront.net":4343,"fcebfea.cloudfront.net":4344,"efdb.cloudfront.net":4345,",x-ic-error-":4346,"▁realm=\"\"http_frontend\"\"',":4347,"▁'x-rate-limit-interval':":4348,"▁cefbfcebfea.cloudfront.net":4349,"▁cfdfbdcead.cloudfront.net":4350,"▁cbcedafbabb.cloudfront.net":4351,"▁eeaecabcfbe.cloudfront.net":4352,"▁efffdfffbffaac.cloudfront.net":4353,"▁'lhr::fra::xjx-":4354,"▁'http://mempoolhqxiswxsabwphsqldayuidyxvoethdhhjmlorad.onion/api/v/fe":4355,"▁beafbbfcfc.cloudfront.net":4356,"▁dfcafcbadcfcfa.cloudfront.net":4357,"▁bdfcecfc.cloudfront.net":4358,"▁bddcebcefed.cloudfront.net":4359,"▁bdbdaedababadbce.cloudfront.net":4360,"▁'request:anime:":4361,"▁'http://mempoolhqxiswxsabwphsqldayuidyxvoethdhhjmlorad.onion/api/block/bdafafeedaadeacf/":4362,"▁filename=\"\"qrtag_transparent__":4363,"▁ebeccfbac.cloudfront.net":4364,"▁'x-cascade':":4365,"▁'x-csrf-token,":4366,"▁fddfadceec.cloudfront.net":4367,"▁'request:recommendations:":4368,"▁ecfcdbefdad.cloudfront.net":4369,"▁time-out\"":4370,"▁client-security-token'}\"":4371,"▁efdfeabefdb.cloudfront.net":4372,"▁aaabbebfccda.cloudfront.net":4373,"▁adfadfadabdba.cloudfront.net":4374,"▁aedbcefcffea.cloudfront.net":4375,"▁temporarily":4376,"▁'/api/icon/[hostname]',":4377,"▁'x-ua-compatible':":4378,"▁dfddcfbdcbe.cloudfront.net":4379,"▁dcebabebfedf.cloudfront.net":4380}